{
  "version": "1.0",
  "truncation": null,
  "padding": null,
  "added_tokens": [
    {
      "id": 0,
      "content": "<pad>",
      "single_word": false,
      "lstrip": false,
      "rstrip": false,
      "normalized": false,
      "special": true
    },
    {
      "id": 1,
      "content": "<unk>",
      "single_word": false,
      "lstrip": false,
      "rstrip": false,
      "normalized": false,
      "special": true
    },
    {
      "id": 2,
      "content": "<sep>",
      "single_word": false,
      "lstrip": false,
      "rstrip": false,
      "normalized": false,
      "special": true
    },
    {
      "id": 3,
      "content": "<cls>",
      "single_word": false,
      "lstrip": false,
      "rstrip": false,
      "normalized": false,
      "special": true
    },
    {
      "id": 4,
      "content": "<eos>",
      "single_word": false,
      "lstrip": false,
      "rstrip": false,
      "normalized": false,
      "special": true
    }
  ],
  "normalizer": null,
  "pre_tokenizer": {
    "type": "ByteLevel",
    "add_prefix_space": true,
    "trim_offsets": true,
    "use_regex": true
  },
  "post_processor": {
    "type": "TemplateProcessing",
    "single": [
      {
        "SpecialToken": {
          "id": "<cls>",
          "type_id": 0
        }
      },
      {
        "Sequence": {
          "id": "A",
          "type_id": 0
        }
      },
      {
        "SpecialToken": {
          "id": "<eos>",
          "type_id": 0
        }
      }
    ],
    "pair": [
      {
        "SpecialToken": {
          "id": "<cls>",
          "type_id": 0
        }
      },
      {
        "Sequence": {
          "id": "A",
          "type_id": 0
        }
      },
      {
        "SpecialToken": {
          "id": "<sep>",
          "type_id": 0
        }
      },
      {
        "Sequence": {
          "id": "B",
          "type_id": 0
        }
      },
      {
        "SpecialToken": {
          "id": "<eos>",
          "type_id": 0
        }
      }
    ],
    "special_tokens": {
      "<cls>": {
        "id": "<cls>",
        "ids": [
          3
        ],
        "tokens": [
          "<cls>"
        ]
      },
      "<eos>": {
        "id": "<eos>",
        "ids": [
          4
        ],
        "tokens": [
          "<eos>"
        ]
      },
      "<sep>": {
        "id": "<sep>",
        "ids": [
          2
        ],
        "tokens": [
          "<sep>"
        ]
      }
    }
  },
  "decoder": null,
  "model": {
    "type": "BPE",
    "dropout": null,
    "unk_token": "<unk>",
    "continuing_subword_prefix": null,
    "end_of_word_suffix": null,
    "fuse_unk": false,
    "byte_fallback": false,
    "ignore_merges": false,
    "vocab": {
      "<pad>": 0,
      "<unk>": 1,
      "<sep>": 2,
      "<cls>": 3,
      "<eos>": 4,
      "!": 5,
      "\"": 6,
      "%": 7,
      "'": 8,
      "(": 9,
      ")": 10,
      "+": 11,
      ",": 12,
      "-": 13,
      ".": 14,
      "/": 15,
      "0": 16,
      "1": 17,
      "2": 18,
      "3": 19,
      "4": 20,
      "5": 21,
      "6": 22,
      "7": 23,
      "8": 24,
      "9": 25,
      ":": 26,
      ";": 27,
      "?": 28,
      "A": 29,
      "B": 30,
      "C": 31,
      "D": 32,
      "E": 33,
      "F": 34,
      "G": 35,
      "H": 36,
      "I": 37,
      "J": 38,
      "K": 39,
      "L": 40,
      "M": 41,
      "N": 42,
      "O": 43,
      "P": 44,
      "Q": 45,
      "R": 46,
      "S": 47,
      "T": 48,
      "U": 49,
      "V": 50,
      "W": 51,
      "X": 52,
      "Y": 53,
      "Z": 54,
      "`": 55,
      "a": 56,
      "b": 57,
      "c": 58,
      "d": 59,
      "e": 60,
      "f": 61,
      "g": 62,
      "h": 63,
      "i": 64,
      "j": 65,
      "k": 66,
      "l": 67,
      "m": 68,
      "n": 69,
      "o": 70,
      "p": 71,
      "q": 72,
      "r": 73,
      "s": 74,
      "t": 75,
      "u": 76,
      "v": 77,
      "w": 78,
      "x": 79,
      "y": 80,
      "z": 81,
      "Ġ": 82,
      "Ġt": 83,
      "he": 84,
      "Ġa": 85,
      "in": 86,
      "Ġs": 87,
      "Ġc": 88,
      "re": 89,
      "Ġthe": 90,
      "an": 91,
      "Ġw": 92,
      "er": 93,
      "Ġb": 94,
      "is": 95,
      "on": 96,
      "Ġf": 97,
      "Ġp": 98,
      "Ġto": 99,
      "le": 100,
      "Ġm": 101,
      "at": 102,
      "Ġh": 103,
      "Ġd": 104,
      "ou": 105,
      "ing": 106,
      "es": 107,
      "Ġis": 108,
      "or": 109,
      "ot": 110,
      "ar": 111,
      "Ġin": 112,
      "en": 113,
      "it": 114,
      "ed": 115,
      "al": 116,
      "Ġn": 117,
      "Ġl": 118,
      "as": 119,
      "Ġo": 120,
      "Ġg": 121,
      "Ġcan": 122,
      "ĠT": 123,
      "Ġan": 124,
      "Ġe": 125,
      "om": 126,
      "ic": 127,
      "us": 128,
      "Ġare": 129,
      "ve": 130,
      "Ġof": 131,
      "il": 132,
      "ke": 133,
      "ĠThe": 134,
      "Ġbe": 135,
      "op": 136,
      "Ġhe": 137,
      "oo": 138,
      "Ġon": 139,
      "ir": 140,
      "ĠI": 141,
      "Ġand": 142,
      "ay": 143,
      "et": 144,
      "ro": 145,
      "Ġnot": 146,
      "ly": 147,
      "Ġli": 148,
      "Ġfor": 149,
      "ac": 150,
      "Ġth": 151,
      "ĠA": 152,
      "eop": 153,
      "eople": 154,
      "Ġst": 155,
      "ĠS": 156,
      "Ġy": 157,
      "ĠH": 158,
      "un": 159,
      "ad": 160,
      "Ġdo": 161,
      "ut": 162,
      "ri": 163,
      "ver": 164,
      "gh": 165,
      "Ġus": 166,
      "ent": 167,
      "ol": 168,
      "Ġha": 169,
      "im": 170,
      "Ġyou": 171,
      "el": 172,
      "ith": 173,
      "Ġre": 174,
      "Ġwith": 175,
      "Ġsh": 176,
      "'t": 177,
      "ow": 178,
      "ter": 179,
      "ĠHe": 180,
      "Ġpeople": 181,
      "ur": 182,
      "ĠP": 183,
      "am": 184,
      "Ġpl": 185,
      "os": 186,
      "ch": 187,
      "ra": 188,
      "ater": 189,
      "id": 190,
      "ion": 191,
      "ood": 192,
      "ĠC": 193,
      "Ġhis": 194,
      "all": 195,
      "ant": 196,
      "her": 197,
      "Ġeat": 198,
      "um": 199,
      "ĠM": 200,
      "Ġhave": 201,
      "ers": 202,
      "ore": 203,
      "ill": 204,
      "ght": 205,
      "ct": 206,
      "Ġat": 207,
      "Ġwas": 208,
      "Ġne": 209,
      "Ġwe": 210,
      "very": 211,
      "ld": 212,
      "Ġit": 213,
      "Ġwh": 214,
      "ome": 215,
      "ake": 216,
      "Ġcar": 217,
      "Ġso": 218,
      "and": 219,
      "one": 220,
      "ab": 221,
      "Ġwater": 222,
      "hen": 223,
      "'s": 224,
      "ĠW": 225,
      "Ġch": 226,
      "Ġr": 227,
      "ce": 228,
      "ally": 229,
      "th": 230,
      "ook": 231,
      "ul": 232,
      "st": 233,
      "if": 234,
      "ak": 235,
      "Ġmy": 236,
      "Ġcl": 237,
      "ĠB": 238,
      "Ġfr": 239,
      "Ġse": 240,
      "ge": 241,
      "Ġtoo": 242,
      "Ġk": 243,
      "Ġle": 244,
      "pp": 245,
      "not": 246,
      "Ġcannot": 247,
      "oun": 248,
      "Ġman": 249,
      "ig": 250,
      "Ġlike": 251,
      "ous": 252,
      "les": 253,
      "Ġwhen": 254,
      "ould": 255,
      "out": 256,
      "Ġsp": 257,
      "ast": 258,
      "ep": 259,
      "fe": 260,
      "ain": 261,
      "Ġte": 262,
      "Ġhas": 263,
      "Ġdr": 264,
      "ap": 265,
      "Ġwill": 266,
      "Ġal": 267,
      "up": 268,
      "ĠY": 269,
      "ren": 270,
      "ind": 271,
      "Ġthan": 272,
      "Ġex": 273,
      "Ġgo": 274,
      "ice": 275,
      "Ġfrom": 276,
      "ĠYou": 277,
      "ine": 278,
      "ĠD": 279,
      "ile": 280,
      "ually": 281,
      "Ġcon": 282,
      "Ġcom": 283,
      "Ġher": 284,
      "Ġwor": 285,
      "ĠPeople": 286,
      "ard": 287,
      "Ġmo": 288,
      "ĠShe": 289,
      "Ġused": 290,
      "Ġshe": 291,
      "ass": 292,
      "Ġneed": 293,
      "ink": 294,
      "ts": 295,
      "Ġusually": 296,
      "Ġj": 297,
      "Ġput": 298,
      "qu": 299,
      "Ġvery": 300,
      "ies": 301,
      "aus": 302,
      "Ġno": 303,
      "Ġas": 304,
      "ick": 305,
      "Ġplay": 306,
      "ish": 307,
      "gs": 308,
      "ck": 309,
      "Ġcol": 310,
      "Ġro": 311,
      "Ġbo": 312,
      "ure": 313,
      "Ġdon": 314,
      "Ġfood": 315,
      "ight": 316,
      "Ġby": 317,
      "Ġen": 318,
      "hes": 319,
      "Ġbu": 320,
      "ell": 321,
      "Ġsome": 322,
      "other": 323,
      "ds": 324,
      "ire": 325,
      "Ġmany": 326,
      "ud": 327,
      "Ġme": 328,
      "ars": 329,
      "ive": 330,
      "ate": 331,
      "ation": 332,
      "ĠF": 333,
      "our": 334,
      "Ġbec": 335,
      "Ġsm": 336,
      "ild": 337,
      "ĠE": 338,
      "ings": 339,
      "ause": 340,
      "Ġv": 341,
      "Ġmake": 342,
      "ry": 343,
      "ves": 344,
      "able": 345,
      "to": 346,
      "Ġaf": 347,
      "ĠThere": 348,
      "uman": 349,
      "Ġtheir": 350,
      "Ġfe": 351,
      "Ġyour": 352,
      "row": 353,
      "ort": 354,
      "ger": 355,
      "hing": 356,
      "Ġtre": 357,
      "Ġthat": 358,
      "Ġget": 359,
      "Ġdoes": 360,
      "Ġgood": 361,
      "ack": 362,
      "Ġshould": 363,
      "ound": 364,
      "Ġsun": 365,
      "ace": 366,
      "Ġthey": 367,
      "ie": 368,
      "ade": 369,
      "ide": 370,
      "Ġbl": 371,
      "Ġday": 372,
      "Ġsw": 373,
      "Ġdrink": 374,
      "Ġun": 375,
      "Ġcat": 376,
      "Ġmore": 377,
      "ool": 378,
      "Ġfl": 379,
      "Ġup": 380,
      "ist": 381,
      "Ġbecause": 382,
      "Ġinto": 383,
      "ite": 384,
      "ket": 385,
      "ach": 386,
      "Ġsk": 387,
      "alk": 388,
      "Ġfri": 389,
      "Ġout": 390,
      "Ġbr": 391,
      "als": 392,
      "Ġafter": 393,
      "Ġevery": 394,
      "ark": 395,
      "ors": 396,
      "ens": 397,
      "Ġwork": 398,
      "are": 399,
      "rain": 400,
      "tain": 401,
      "Ġmade": 402,
      "Ġdri": 403,
      "Ġgr": 404,
      "Ġpro": 405,
      "Ġwhile": 406,
      "Ġhuman": 407,
      "ess": 408,
      "ĠL": 409,
      "Ġone": 410,
      "ents": 411,
      "est": 412,
      "ost": 413,
      "Ġbut": 414,
      "Ġuse": 415,
      "Ġdog": 416,
      "Ġwant": 417,
      "ouse": 418,
      "leep": 419,
      "Ġsu": 420,
      "ĠG": 421,
      "Ġbre": 422,
      "art": 423,
      "Ġde": 424,
      "ity": 425,
      "Ġthere": 426,
      "res": 427,
      "ving": 428,
      "Ġmus": 429,
      "Ġke": 430,
      "ong": 431,
      "ball": 432,
      "Ġor": 433,
      "ime": 434,
      "Ġcook": 435,
      "way": 436,
      "Ġair": 437,
      "Ġpr": 438,
      "ĠJ": 439,
      "Ġwent": 440,
      "ble": 441,
      "ip": 442,
      "oth": 443,
      "ĠCh": 444,
      "end": 445,
      "Ġbook": 446,
      "Ġph": 447,
      "Ġcomp": 448,
      "ph": 449,
      "Ġtr": 450,
      "urn": 451,
      "ĠWe": 452,
      "akes": 453,
      "uch": 454,
      "ect": 455,
      "Ġsleep": 456,
      "Ġlot": 457,
      "Ġfly": 458,
      "old": 459,
      "Ġsee": 460,
      "ough": 461,
      "Ġsa": 462,
      "ag": 463,
      "der": 464,
      "ise": 465,
      "omet": 466,
      "Ġtime": 467,
      "led": 468,
      "Ġar": 469,
      "ame": 470,
      "Ġri": 471,
      "Ġhouse": 472,
      "ĠMy": 473,
      "atch": 474,
      "Ġkn": 475,
      "ans": 476,
      "day": 477,
      "Ġhand": 478,
      "Ġlo": 479,
      "Ġbig": 480,
      "wn": 481,
      "Ġco": 482,
      "ary": 483,
      "Ġmuch": 484,
      "ĠR": 485,
      "red": 486,
      "ĠIt": 487,
      "Ġele": 488,
      "ven": 489,
      "mer": 490,
      "Ġstud": 491,
      "ment": 492,
      "ĠSt": 493,
      "ath": 494,
      "Ġlive": 495,
      "ĠN": 496,
      "Ġbuy": 497,
      "age": 498,
      "ll": 499,
      "Ġbir": 500,
      "Ġoff": 501,
      "rent": 502,
      "Ġwalk": 503,
      "Ġapp": 504,
      "Ġonly": 505,
      "Ġanim": 506,
      "Ġclot": 507,
      "Ġfind": 508,
      "ning": 509,
      "Ġdif": 510,
      "ĠO": 511,
      "oes": 512,
      "aper": 513,
      "Ġchild": 514,
      "Ġhot": 515,
      "Ġim": 516,
      "ones": 517,
      "alth": 518,
      "Ġcle": 519,
      "erson": 520,
      "Ġab": 521,
      "Ġmoon": 522,
      "port": 523,
      "Ġhel": 524,
      "Ġche": 525,
      "Ġperson": 526,
      "aur": 527,
      "Ġall": 528,
      "ather": 529,
      "chool": 530,
      "Ġbas": 531,
      "Ġhair": 532,
      "ail": 533,
      "hed": 534,
      "ffe": 535,
      "oney": 536,
      "Ġexp": 537,
      "Ġtake": 538,
      "Ġswim": 539,
      "Ġother": 540,
      "Ġplan": 541,
      "Ġclothes": 542,
      "ue": 543,
      "Ġif": 544,
      "Ġsc": 545,
      "ants": 546,
      "ought": 547,
      "Ġlight": 548,
      "Ġhard": 549,
      "Ġschool": 550,
      "Ġate": 551,
      "ting": 552,
      "arm": 553,
      "Ġhealth": 554,
      "Ġthem": 555,
      "igh": 556,
      "air": 557,
      "Ġgre": 558,
      "Ġeating": 559,
      "Ġwr": 560,
      "Ġrun": 561,
      "Ġteac": 562,
      "Ġsmall": 563,
      "Ġsky": 564,
      "Ġhim": 565,
      "ub": 566,
      "Ġtra": 567,
      "Ġwho": 568,
      "ob": 569,
      "ose": 570,
      "Ġwear": 571,
      "Ġdin": 572,
      "Ġhelp": 573,
      "ten": 574,
      "ferent": 575,
      "ĠAn": 576,
      "br": 577,
      "av": 578,
      "dy": 579,
      "Ġstore": 580,
      "ower": 581,
      "ys": 582,
      "ance": 583,
      "Ġear": 584,
      "ank": 585,
      "ons": 586,
      "Ġthings": 587,
      "Ġfish": 588,
      "em": 589,
      "Ġwatch": 590,
      "Ġgir": 591,
      "get": 592,
      "Ġgrow": 593,
      "Ġteacher": 594,
      "Ġfire": 595,
      "ff": 596,
      "fore": 597,
      "Ġread": 598,
      "Ġfeel": 599,
      "Ġgl": 600,
      "Ġcold": 601,
      "ats": 602,
      "ful": 603,
      "ich": 604,
      "kes": 605,
      "Ġop": 606,
      "vel": 607,
      "Ġkeep": 608,
      "Ġdifferent": 609,
      "oot": 610,
      "tle": 611,
      "Ġtree": 612,
      "Ġhapp": 613,
      "Ġwould": 614,
      "de": 615,
      "Ġdes": 616,
      "Ġturn": 617,
      "ear": 618,
      "side": 619,
      "Ġour": 620,
      "Ġhad": 621,
      "Ġclean": 622,
      "ang": 623,
      "act": 624,
      "Ġhome": 625,
      "Ġrest": 626,
      "Ġchildren": 627,
      "Ġve": 628,
      "iz": 629,
      "Ġmay": 630,
      "Ġey": 631,
      "Ġcomput": 632,
      "ber": 633,
      "ress": 634,
      "Ġqu": 635,
      "ating": 636,
      "ust": 637,
      "Ġnight": 638,
      "Ġmov": 639,
      "Ġwhe": 640,
      "Ġdis": 641,
      "room": 642,
      "ĠDo": 643,
      "Ġrain": 644,
      "Ġwind": 645,
      "Ġnew": 646,
      "Ġclass": 647,
      "Ġsea": 648,
      "ft": 649,
      "Ġsomet": 650,
      "cc": 651,
      "Ġra": 652,
      "Ġmoney": 653,
      "Ġbefore": 654,
      "Ġanimals": 655,
      "ible": 656,
      "pl": 657,
      "uit": 658,
      "ĠIf": 659,
      "Ġcontain": 660,
      "Ġtrees": 661,
      "ily": 662,
      "ilk": 663,
      "aking": 664,
      "Ġice": 665,
      "Ġpaper": 666,
      "Ġdoesn": 667,
      "ty": 668,
      "Ġtable": 669,
      "Ġla": 670,
      "Ġoften": 671,
      "Ġcut": 672,
      "Ġpo": 673,
      "Ġpol": 674,
      "ci": 675,
      "Ġany": 676,
      "Ġad": 677,
      "Ġcolor": 678,
      "Ġpen": 679,
      "Ġtook": 680,
      "se": 681,
      "ines": 682,
      "te": 683,
      "Ġbed": 684,
      "Ġpre": 685,
      "ner": 686,
      "Ġdown": 687,
      "Ġplace": 688,
      "oon": 689,
      "ase": 690,
      "Ġshoes": 691,
      "Ġbad": 692,
      "ated": 693,
      "Ġdrive": 694,
      "Ġsn": 695,
      "Ġhigh": 696,
      "ows": 697,
      "Ġmusic": 698,
      "ree": 699,
      "Ġtast": 700,
      "du": 701,
      "orm": 702,
      "ĠSome": 703,
      "Ġbought": 704,
      "ric": 705,
      "Ġpart": 706,
      "ends": 707,
      "Ġwithout": 708,
      "ount": 709,
      "ert": 710,
      "ss": 711,
      "Ġpet": 712,
      "ates": 713,
      "Ġlikes": 714,
      "Ġwhite": 715,
      "ave": 716,
      "oy": 717,
      "Ġphone": 718,
      "Ġtw": 719,
      "dge": 720,
      "Ġbab": 721,
      "Ġmach": 722,
      "ork": 723,
      "imes": 724,
      "Ġstudents": 725,
      "Ġfoot": 726,
      "Ġmost": 727,
      "bit": 728,
      "Ġste": 729,
      "Ġbasket": 730,
      "Ġtrain": 731,
      "Ġbath": 732,
      "ions": 733,
      "Ġspe": 734,
      "co": 735,
      "ĠPl": 736,
      "Ġenough": 737,
      "ĠU": 738,
      "ways": 739,
      "ump": 740,
      "ĠWater": 741,
      "ike": 742,
      "Ġam": 743,
      "Ġmakes": 744,
      "Ġbet": 745,
      "bo": 746,
      "Ġwin": 747,
      "Ġroom": 748,
      "ock": 749,
      "Ġcars": 750,
      "Ġfun": 751,
      "Ġball": 752,
      "Ġmon": 753,
      "Ġhands": 754,
      "Ġpain": 755,
      "Ġpark": 756,
      "Ġgot": 757,
      "ian": 758,
      "sel": 759,
      "Ġkind": 760,
      "Ġbooks": 761,
      "yc": 762,
      "Ġrestaur": 763,
      "ming": 764,
      "pt": 765,
      "Ġhun": 766,
      "Ġlook": 767,
      "eth": 768,
      "ted": 769,
      "Ġsur": 770,
      "erc": 771,
      "Ġbreak": 772,
      "Ġknow": 773,
      "iron": 774,
      "Ġref": 775,
      "Ġeyes": 776,
      "iv": 777,
      "els": 778,
      "osp": 779,
      "Ġcomputer": 780,
      "Ġglass": 781,
      "Ġeleph": 782,
      "Ġmilk": 783,
      "Ġlar": 784,
      "Ġalways": 785,
      "Ġover": 786,
      "ature": 787,
      "Ġoce": 788,
      "amp": 789,
      "Ġlear": 790,
      "Ġbuild": 791,
      "Ġabout": 792,
      "ummer": 793,
      "ia": 794,
      "ator": 795,
      "Ġgirl": 796,
      "rove": 797,
      "ffee": 798,
      "Ġi": 799,
      "Ġthr": 800,
      "Ġbus": 801,
      "Ġbody": 802,
      "Ġcre": 803,
      "Ġstone": 804,
      "Ġdinner": 805,
      "Ġlong": 806,
      "Ġlife": 807,
      "Ġthis": 808,
      "Ġtwo": 809,
      "ug": 810,
      "Ġsal": 811,
      "Ġcomm": 812,
      "Ġopen": 813,
      "Ġmother": 814,
      "Ġtravel": 815,
      "ĠDogs": 816,
      "Ġocean": 817,
      "Ġthrough": 818,
      "oss": 819,
      "ife": 820,
      "Ġaround": 821,
      "any": 822,
      "ence": 823,
      "ters": 824,
      "Ġeas": 825,
      "Ġprodu": 826,
      "Ġsl": 827,
      "Ġcount": 828,
      "Ġcup": 829,
      "Ġatt": 830,
      "Ġfriends": 831,
      "Ġbasketball": 832,
      "ale": 833,
      "Ġfridge": 834,
      "Ġplane": 835,
      "Ġland": 836,
      "Ġdoct": 837,
      "Ġrel": 838,
      "ospit": 839,
      "ng": 840,
      "ensive": 841,
      "Ġbirth": 842,
      "Ġmachine": 843,
      "ins": 844,
      "Ġsummer": 845,
      "Ġmust": 846,
      "Ġveget": 847,
      "Ġrestaurant": 848,
      "anc": 849,
      "Ġbar": 850,
      "uring": 851,
      "ountain": 852,
      "Ġimport": 853,
      "ears": 854,
      "per": 855,
      "Ġold": 856,
      "ult": 857,
      "Ġblack": 858,
      "ict": 859,
      "Ġred": 860,
      "ames": 861,
      "Ġpa": 862,
      "irst": 863,
      "Ġearth": 864,
      "Ġwinter": 865,
      "cre": 866,
      "Ġbot": 867,
      "Ġteeth": 868,
      "Ġunder": 869,
      "pe": 870,
      "uck": 871,
      "Ġz": 872,
      "Ġsand": 873,
      "Ġfam": 874,
      "Ġhead": 875,
      "ables": 876,
      "Ġexpensive": 877,
      "Ġhappy": 878,
      "Ġcal": 879,
      "Ġpolice": 880,
      "Ġimportant": 881,
      "outh": 882,
      "ush": 883,
      "ĠIn": 884,
      "Ġty": 885,
      "Ġmar": 886,
      "orn": 887,
      "itc": 888,
      "astic": 889,
      "ition": 890,
      "Ġoil": 891,
      "Ġchair": 892,
      "Ġcont": 893,
      "Ġsame": 894,
      "Ġfit": 895,
      "ash": 896,
      "Ġwashing": 897,
      "ved": 898,
      "Ġpe": 899,
      "Ġdogs": 900,
      "Ġflo": 901,
      "Ġprot": 902,
      "Ġgreen": 903,
      "anan": 904,
      "Ġdir": 905,
      "ical": 906,
      "Ġswimming": 907,
      "Ġgrass": 908,
      "aves": 909,
      "og": 910,
      "Ġshop": 911,
      "Ġeats": 912,
      "Ġfall": 913,
      "Ġoven": 914,
      "Ġmovie": 915,
      "Ġexerc": 916,
      "Ġbike": 917,
      "Ġfound": 918,
      "Ġhospit": 919,
      "Ġbox": 920,
      "Ġcats": 921,
      "ient": 922,
      "key": 923,
      "Ġboy": 924,
      "erm": 925,
      "Ġfruit": 926,
      "Ġfeet": 927,
      "Ġres": 928,
      "owers": 929,
      "Ġswe": 930,
      "Ġothers": 931,
      "Ġbaby": 932,
      "Ġgas": 933,
      "aces": 934,
      "Ġchick": 935,
      "Ġrock": 936,
      "Ġelephant": 937,
      "Ġfast": 938,
      "Ġmountain": 939,
      "ign": 940,
      "less": 941,
      "Ġfriend": 942,
      "ĠK": 943,
      "Ġdrove": 944,
      "aut": 945,
      "ma": 946,
      "Ġcare": 947,
      "Ġsaw": 948,
      "Ġfootball": 949,
      "Ġwhich": 950,
      "Ġlearn": 951,
      "Ġmor": 952,
      "Ġcoffee": 953,
      "Ġway": 954,
      "Ġdid": 955,
      "Ġstr": 956,
      "unk": 957,
      "Ġsmo": 958,
      "Ġmorning": 959,
      "Ġback": 960,
      "iss": 961,
      "aster": 962,
      "Ġprotect": 963,
      "Ġaway": 964,
      "Ġduring": 965,
      "Ġdays": 966,
      "Ġelect": 967,
      "io": 968,
      "unch": 969,
      "Ġgoing": 970,
      "ina": 971,
      "Ġmed": 972,
      "Ġdrinking": 973,
      "Ġriver": 974,
      "Ġimp": 975,
      "cer": 976,
      "gr": 977,
      "Ġwall": 978,
      "Ġmet": 979,
      "Ġits": 980,
      "Ġlegs": 981,
      "ĠOn": 982,
      "Ġwell": 983,
      "Ġhumans": 984,
      "Ġag": 985,
      "Ġhold": 986,
      "ĠHuman": 987,
      "Ġbigger": 988,
      "ms": 989,
      "Ġwon": 990,
      "Ġgames": 991,
      "ĠSomet": 992,
      "Ġsomething": 993,
      "ix": 994,
      "uc": 995,
      "Ġthing": 996,
      "ĠWhen": 997,
      "Ġlove": 998,
      "fast": 999,
      "Ġlit": 1000,
      "Ġlikely": 1001,
      "Ġtem": 1002,
      "Ġbat": 1003,
      "Ġob": 1004,
      "Ġnever": 1005,
      "self": 1006,
      "Ġact": 1007,
      "ane": 1008,
      "Ġboth": 1009,
      "Ġlion": 1010,
      "Ġworld": 1011,
      "Ġhospital": 1012,
      "Ġsol": 1013,
      "Ġsell": 1014,
      "ited": 1015,
      "Ġdriving": 1016,
      "perature": 1017,
      "Ġsing": 1018,
      "Ġpat": 1019,
      "ĠTom": 1020,
      "Ġem": 1021,
      "Ġbread": 1022,
      "Ġtrans": 1023,
      "Ġbreakfast": 1024,
      "itchen": 1025,
      "Ġexercise": 1026,
      "au": 1027,
      "ious": 1028,
      "oup": 1029,
      "raw": 1030,
      "Ġliving": 1031,
      "Ġwere": 1032,
      "Ġbetter": 1033,
      "so": 1034,
      "Ġknife": 1035,
      "ier": 1036,
      "ial": 1037,
      "oc": 1038,
      "Ġed": 1039,
      "erg": 1040,
      "Ġfather": 1041,
      "Ġtooth": 1042,
      "Ġdel": 1043,
      "Ġdark": 1044,
      "Ġinst": 1045,
      "Ġeg": 1046,
      "Ġjob": 1047,
      "Ġsomeone": 1048,
      "ron": 1049,
      "Ġent": 1050,
      "Ġacc": 1051,
      "ids": 1052,
      "Ġroad": 1053,
      "Ġdoctor": 1054,
      "cess": 1055,
      "Ġmouth": 1056,
      "ory": 1057,
      "Ġliqu": 1058,
      "Ġlibr": 1059,
      "amm": 1060,
      "Ġbro": 1061,
      "Ġexam": 1062,
      "Ġneeds": 1063,
      "Ġplaying": 1064,
      "ffic": 1065,
      "Ġdesert": 1066,
      "Ġtemperature": 1067,
      "Ġsit": 1068,
      "ĠSh": 1069,
      "rents": 1070,
      "Ġenj": 1071,
      "ject": 1072,
      "Ġac": 1073,
      "Ġbanan": 1074,
      "lect": 1075,
      "Ġdi": 1076,
      "ove": 1077,
      "ĠTV": 1078,
      "Ġjump": 1079,
      "Ġtalk": 1080,
      "Ġce": 1081,
      "Ġplant": 1082,
      "osaur": 1083,
      "umb": 1084,
      "ĠNo": 1085,
      "Ġinside": 1086,
      "ross": 1087,
      "Ġeaten": 1088,
      "ull": 1089,
      "Ġfore": 1090,
      "Ġlist": 1091,
      "urt": 1092,
      "Ġwash": 1093,
      "ired": 1094,
      "Ġmeat": 1095,
      "Ġtaste": 1096,
      "Ġcould": 1097,
      "anger": 1098,
      "ope": 1099,
      "aying": 1100,
      "icks": 1101,
      "ding": 1102,
      "Ġser": 1103,
      "read": 1104,
      "Ġdoor": 1105,
      "Ġplants": 1106,
      "Ġbird": 1107,
      "Ġcall": 1108,
      "Ġpot": 1109,
      "Ġkitchen": 1110,
      "Ġlibrary": 1111,
      "iting": 1112,
      "Ġlunch": 1113,
      "rol": 1114,
      "ands": 1115,
      "Ġanimal": 1116,
      "Ġcountry": 1117,
      "Ġtig": 1118,
      "Ġbeing": 1119,
      "Ġheav": 1120,
      "vers": 1121,
      "Ġrem": 1122,
      "Ġlet": 1123,
      "Ġalso": 1124,
      "Ġchicken": 1125,
      "ton": 1126,
      "lev": 1127,
      "Ġbeaut": 1128,
      "ĠChina": 1129,
      "icture": 1130,
      "Ġcr": 1131,
      "Ġwarm": 1132,
      "Ġfin": 1133,
      "Ġown": 1134,
      "ets": 1135,
      "ax": 1136,
      "gry": 1137,
      "Ġfar": 1138,
      "kets": 1139,
      "ried": 1140,
      "Ġclos": 1141,
      "Ġplayed": 1142,
      "Ġsometimes": 1143,
      "Ġcontains": 1144,
      "ular": 1145,
      "Ġspace": 1146,
      "Ġcooking": 1147,
      "Ġteachers": 1148,
      "Ġwore": 1149,
      "Ġpicture": 1150,
      "ener": 1151,
      "Ġgame": 1152,
      "rim": 1153,
      "ef": 1154,
      "work": 1155,
      "Ġpick": 1156,
      "Ġrequ": 1157,
      "ĠCars": 1158,
      "ations": 1159,
      "Ġsleeping": 1160,
      "Ġbirthday": 1161,
      "Ġpie": 1162,
      "Ġhow": 1163,
      "Ġshap": 1164,
      "Ġspoon": 1165,
      "Ġoutside": 1166,
      "Ġbrother": 1167,
      "Ġground": 1168,
      "Ġmic": 1169,
      "Ġgive": 1170,
      "ĠTh": 1171,
      "ision": 1172,
      "Ġface": 1173,
      "iful": 1174,
      "ellow": 1175,
      "Ġturned": 1176,
      "Ġwhere": 1177,
      "gar": 1178,
      "lic": 1179,
      "ange": 1180,
      "len": 1181,
      "Ġrec": 1182,
      "Ġdry": 1183,
      "Ġgoes": 1184,
      "Ġcooked": 1185,
      "Ġenjoy": 1186,
      "Ġlisten": 1187,
      "Ġcity": 1188,
      "Ġpop": 1189,
      "oud": 1190,
      "ĠCl": 1191,
      "ĠMany": 1192,
      "Ġapple": 1193,
      "ycle": 1194,
      "Ġlarge": 1195,
      "Ġfamily": 1196,
      "Ġper": 1197,
      "Ġpass": 1198,
      "Ġyear": 1199,
      "Ġship": 1200,
      "Ġcatch": 1201,
      "Ġflying": 1202,
      "Ġbuilding": 1203,
      "ipp": 1204,
      "Ġwine": 1205,
      "Ġfil": 1206,
      "Ġfree": 1207,
      "Ġgar": 1208,
      "Ġdrank": 1209,
      "ires": 1210,
      "Ġdanger": 1211,
      "Ġbel": 1212,
      "tern": 1213,
      "Ġchar": 1214,
      "Ġbring": 1215,
      "Ġprov": 1216,
      "oe": 1217,
      "Ġwindow": 1218,
      "board": 1219,
      "Ġcream": 1220,
      "Ġbeautiful": 1221,
      "be": 1222,
      "ked": 1223,
      "we": 1224,
      "ĠV": 1225,
      "Ġtoile": 1226,
      "Ġgun": 1227,
      "Ġgard": 1228,
      "Ġwrite": 1229,
      "Ġtaking": 1230,
      "keys": 1231,
      "Ġstre": 1232,
      "Ġyears": 1233,
      "riger": 1234,
      "Ġplastic": 1235,
      "Ġparents": 1236,
      "ness": 1237,
      "let": 1238,
      "ĠTe": 1239,
      "Ġstop": 1240,
      "Ġgira": 1241,
      "ison": 1242,
      "ord": 1243,
      "Ġusing": 1244,
      "Ġoffice": 1245,
      "Ġgreat": 1246,
      "hol": 1247,
      "Ġwood": 1248,
      "Ġpower": 1249,
      "Ġhors": 1250,
      "Ġdish": 1251,
      "Ġstones": 1252,
      "ĠCats": 1253,
      "Ġsuit": 1254,
      "Ġhealthy": 1255,
      "king": 1256,
      "lish": 1257,
      "Ġ2": 1258,
      "Ġiron": 1259,
      "Ġfirst": 1260,
      "Ġshow": 1261,
      "Ġdangerous": 1262,
      "'m": 1263,
      "rocer": 1264,
      "ries": 1265,
      "Ġshort": 1266,
      "thing": 1267,
      "Ġjust": 1268,
      "Ġblue": 1269,
      "Ġwants": 1270,
      "Ġvegetables": 1271,
      "con": 1272,
      "hip": 1273,
      "Ġcell": 1274,
      "Ġstay": 1275,
      "ills": 1276,
      "Ġweight": 1277,
      "Ġcond": 1278,
      "Ġsmell": 1279,
      "ny": 1280,
      "Ġwom": 1281,
      "ouds": 1282,
      "ĠBe": 1283,
      "ĠEvery": 1284,
      "Ġcommon": 1285,
      "Ġelectric": 1286,
      "Ġsoup": 1287,
      "ours": 1288,
      "Ġflowers": 1289,
      "Ġ1": 1290,
      "Ġcool": 1291,
      "ister": 1292,
      "Ġpool": 1293,
      "Ġyellow": 1294,
      "elt": 1295,
      "Ġshower": 1296,
      "ction": 1297,
      "Ġgrad": 1298,
      "Ġsub": 1299,
      "vent": 1300,
      "viron": 1301,
      "Ġsup": 1302,
      "Ġwet": 1303,
      "Ġbri": 1304,
      "ĠThey": 1305,
      "Ġstation": 1306,
      "oline": 1307,
      "Ġclim": 1308,
      "Ġdrinks": 1309,
      "Ġskin": 1310,
      "Ġbreat": 1311,
      "cohol": 1312,
      "aught": 1313,
      "iness": 1314,
      "Ġcause": 1315,
      "ese": 1316,
      "ities": 1317,
      "ilt": 1318,
      "ĠEng": 1319,
      "Ġdirty": 1320,
      "levision": 1321,
      "Ġlives": 1322,
      "Ġleaves": 1323,
      "Ġeveryone": 1324,
      "Ġtraffic": 1325,
      "ew": 1326,
      "Ġsold": 1327,
      "Ġmight": 1328,
      "meric": 1329,
      "Ġstudy": 1330,
      "Ġparty": 1331,
      "Ġbottle": 1332,
      "Ġzoo": 1333,
      "ĠSomething": 1334,
      "Ġpur": 1335,
      "Ġpub": 1336,
      "ident": 1337,
      "Ġwashed": 1338,
      "Ġless": 1339,
      "Ġenviron": 1340,
      "Ġdec": 1341,
      "Ġkept": 1342,
      "ails": 1343,
      "Ġtoilet": 1344,
      "Ġcry": 1345,
      "rew": 1346,
      "rest": 1347,
      "ĠAmeric": 1348,
      "Ġride": 1349,
      "Ġmovies": 1350,
      "Ġnews": 1351,
      "Ġlittle": 1352,
      "Ġfle": 1353,
      "izz": 1354,
      "ĠSp": 1355,
      "ages": 1356,
      "Ġdinosaur": 1357,
      "form": 1358,
      "Ġsqu": 1359,
      "Ġnow": 1360,
      "rown": 1361,
      "Ġlots": 1362,
      "Ġsweet": 1363,
      "Ġliquid": 1364,
      "ead": 1365,
      "Ġlake": 1366,
      "ĠHis": 1367,
      "owl": 1368,
      "rag": 1369,
      "man": 1370,
      "Ġsad": 1371,
      "Ġgu": 1372,
      "Ġgrocer": 1373,
      "Ġcarry": 1374,
      "resh": 1375,
      "Ġphones": 1376,
      "Ġwalking": 1377,
      "ied": 1378,
      "ym": 1379,
      "Ġtakes": 1380,
      "Ġwings": 1381,
      "ote": 1382,
      "Ġgave": 1383,
      "Ġrode": 1384,
      "Ġrunning": 1385,
      "Ġsmaller": 1386,
      "Ġwheels": 1387,
      "Ġgarden": 1388,
      "ĠEnglish": 1389,
      "ces": 1390,
      "fl": 1391,
      "ience": 1392,
      "here": 1393,
      "ince": 1394,
      "ester": 1395,
      "Ġeach": 1396,
      "Ġrefriger": 1397,
      "Ġcalled": 1398,
      "Ġagain": 1399,
      "Ġeggs": 1400,
      "Ġforest": 1401,
      "Ġenvironment": 1402,
      "ales": 1403,
      "ping": 1404,
      "Ġtall": 1405,
      "Ġthen": 1406,
      "Ġtoday": 1407,
      "Ġdress": 1408,
      "Ġlast": 1409,
      "Ġstill": 1410,
      "Ġcomes": 1411,
      "ĠFl": 1412,
      "ildren": 1413,
      "Ġbirds": 1414,
      "Ġbase": 1415,
      "ches": 1416,
      "cket": 1417,
      "fort": 1418,
      "iles": 1419,
      "Ġharm": 1420,
      "Ġind": 1421,
      "Ġuses": 1422,
      "ured": 1423,
      "Ġmonkey": 1424,
      "ossible": 1425,
      "Ġeasy": 1426,
      "00": 1427,
      "ots": 1428,
      "owed": 1429,
      "Ġsurf": 1430,
      "Ġstrong": 1431,
      "esterday": 1432,
      "mon": 1433,
      "ole": 1434,
      "ped": 1435,
      "Ġsick": 1436,
      "ised": 1437,
      "leph": 1438,
      "arp": 1439,
      "Ġeven": 1440,
      "Ġleft": 1441,
      "inema": 1442,
      "Ġsugar": 1443,
      "ĠChildren": 1444,
      "Ġsister": 1445,
      "ĠSun": 1446,
      "Ġspr": 1447,
      "Ġphot": 1448,
      "ĠStone": 1449,
      "bits": 1450,
      "Ġ\"": 1451,
      "Ġsat": 1452,
      "orts": 1453,
      "otor": 1454,
      "ĠEating": 1455,
      "Ġblood": 1456,
      "Ġairpl": 1457,
      "Ġwatching": 1458,
      "Ġrab": 1459,
      "Ġdelic": 1460,
      "Ġheavy": 1461,
      "Ġwa": 1462,
      "Ġburn": 1463,
      "Ġdist": 1464,
      "Ġisn": 1465,
      "ĠTo": 1466,
      "Ġheat": 1467,
      "Ġyesterday": 1468,
      "Ġloc": 1469,
      "Ġsnow": 1470,
      "Ġhorse": 1471,
      "Ġclimb": 1472,
      "Ġbaseball": 1473,
      "cul": 1474,
      "ments": 1475,
      "xt": 1476,
      "Ġcinema": 1477,
      "Ġbowl": 1478,
      "atur": 1479,
      "Ġhear": 1480,
      "Ġplaces": 1481,
      "Ġrad": 1482,
      "Ġwalked": 1483,
      "Ġtastes": 1484,
      "Ġproduct": 1485,
      "Ġbanana": 1486,
      "Ġtiger": 1487,
      "Ġstreet": 1488,
      "sh": 1489,
      "rell": 1490,
      "Ġpian": 1491,
      "Ġtow": 1492,
      "Ġnose": 1493,
      "Ġbeen": 1494,
      "ĠDr": 1495,
      "Ġuni": 1496,
      "Ġkey": 1497,
      "Ġorder": 1498,
      "ĠStud": 1499,
      "Ġwoman": 1500,
      "izza": 1501,
      "Ġfull": 1502,
      "irr": 1503,
      "eter": 1504,
      "ĠMost": 1505,
      "Ġtelevision": 1506,
      "Ġdiff": 1507,
      "Ġcheck": 1508,
      "cial": 1509,
      "Ġdidn": 1510,
      "ks": 1511,
      "Ġill": 1512,
      "Ġsent": 1513,
      "Ġgener": 1514,
      "ĠAll": 1515,
      "ĠMon": 1516,
      "Ġext": 1517,
      "Ġvac": 1518,
      "Ġbathroom": 1519,
      "ĠOne": 1520,
      "Ġsuperm": 1521,
      "anes": 1522,
      "Ġshel": 1523,
      "Ġeng": 1524,
      "Ġenerg": 1525,
      "Ġbuilt": 1526,
      "Ġvol": 1527,
      "Ġgetting": 1528,
      "Ġenergy": 1529,
      "gan": 1530,
      "Ġfat": 1531,
      "eds": 1532,
      "ĠAir": 1533,
      "ghter": 1534,
      "Ġshark": 1535,
      "Ġmeet": 1536,
      "Ġbecome": 1537,
      "Ġenter": 1538,
      "Ġprovide": 1539,
      "Ġgiraffe": 1540,
      "Ġ3": 1541,
      "Ġson": 1542,
      "onger": 1543,
      "Ġlose": 1544,
      "Ġrep": 1545,
      "Ġran": 1546,
      "Ġvis": 1547,
      "Ġpublic": 1548,
      "Ġpra": 1549,
      "Ġhurt": 1550,
      "Ġlost": 1551,
      "Ġform": 1552,
      "Ġgets": 1553,
      "ek": 1554,
      "ze": 1555,
      "Ġtank": 1556,
      "Ġcome": 1557,
      "Ġtheater": 1558,
      "Ġhit": 1559,
      "ils": 1560,
      "Ġdrunk": 1561,
      "Ġalcohol": 1562,
      "ĠFish": 1563,
      "Ġmedic": 1564,
      "Ġsupermar": 1565,
      "ying": 1566,
      "rees": 1567,
      "ists": 1568,
      "Ġfresh": 1569,
      "Ġins": 1570,
      "Ġbeings": 1571,
      "Ġboat": 1572,
      "gen": 1573,
      "od": 1574,
      "Ġfour": 1575,
      "Ġwhale": 1576,
      "ĠBir": 1577,
      "inking": 1578,
      "ĠEar": 1579,
      "Ġdead": 1580,
      "Ġreading": 1581,
      "ize": 1582,
      "Ġflew": 1583,
      "Ġdelicious": 1584,
      "Ġdiffic": 1585,
      "app": 1586,
      "Ġten": 1587,
      "Ġbest": 1588,
      "Ġbag": 1589,
      "Ġmall": 1590,
      "Ġsharp": 1591,
      "ides": 1592,
      "ĠMars": 1593,
      "ouses": 1594,
      "Ġworn": 1595,
      "Ġmove": 1596,
      "Ġlau": 1597,
      "Ġeasily": 1598,
      "Ġtransport": 1599,
      "Ġshape": 1600,
      "Ġpiano": 1601,
      "ives": 1602,
      "nt": 1603,
      "sc": 1604,
      "Ġcur": 1605,
      "Ġfing": 1606,
      "Ġstars": 1607,
      "ĠCom": 1608,
      "Ġcons": 1609,
      "Ġplanet": 1610,
      "avor": 1611,
      "Ġbetwe": 1612,
      "Ġfloor": 1613,
      "Ġinstead": 1614,
      "Ġdifficult": 1615,
      "Ġbetween": 1616,
      "cl": 1617,
      "ple": 1618,
      "Ġwar": 1619,
      "Ġpizza": 1620,
      "Ġmouse": 1621,
      "Ġnorm": 1622,
      "Ġnatur": 1623,
      "ason": 1624,
      "ĠAl": 1625,
      "Ġsoft": 1626,
      "Ġclouds": 1627,
      "Ġdriver": 1628,
      "Ġhungry": 1629,
      "ĠHumans": 1630,
      "Ġedible": 1631,
      "light": 1632,
      "Ġav": 1633,
      "Ġcap": 1634,
      "Ġpar": 1635,
      "Ġpay": 1636,
      "Ġtool": 1637,
      "Ġdise": 1638,
      "Ġdraw": 1639,
      "ĠApp": 1640,
      "ĠCo": 1641,
      "ffect": 1642,
      "Ġpoor": 1643,
      "Ġspeak": 1644,
      "ĠUn": 1645,
      "selves": 1646,
      "Ġopened": 1647,
      "Ġobject": 1648,
      "Ġbreathe": 1649,
      "mel": 1650,
      "Ġtom": 1651,
      "Ġlamp": 1652,
      "Ġstar": 1653,
      "Ġstart": 1654,
      "Ġshoe": 1655,
      "Ġrich": 1656,
      "Ġtea": 1657,
      "Ġfew": 1658,
      "Ġbrought": 1659,
      "Ġprop": 1660,
      "angu": 1661,
      "Ġhomework": 1662,
      "Ġlaw": 1663,
      "af": 1664,
      "lass": 1665,
      "uel": 1666,
      "ware": 1667,
      "int": 1668,
      "Ġcross": 1669,
      "Ġcaught": 1670,
      "ond": 1671,
      "Ġpres": 1672,
      "Ġmater": 1673,
      "ato": 1674,
      "Ġgym": 1675,
      "Ġears": 1676,
      "Ġeffect": 1677,
      "ays": 1678,
      "Ġthirst": 1679,
      "Ġhaving": 1680,
      "Ġreg": 1681,
      "Ġweather": 1682,
      "ledge": 1683,
      "Ġadd": 1684,
      "Ġsuitable": 1685,
      "fortable": 1686,
      "hn": 1687,
      "ract": 1688,
      "top": 1689,
      "Ġumb": 1690,
      "Ġtic": 1691,
      "Ġlate": 1692,
      "Ġgold": 1693,
      "irt": 1694,
      "Ġstove": 1695,
      "ense": 1696,
      "ĠJo": 1697,
      "ĠJack": 1698,
      "Ġappear": 1699,
      "Ġdesk": 1700,
      "Ġcomputers": 1701,
      "Ġtyp": 1702,
      "Ġrefrigerator": 1703,
      "Ġumbrell": 1704,
      "hic": 1705,
      "was": 1706,
      "Ġsince": 1707,
      "Ġcaus": 1708,
      "Ġcrim": 1709,
      "omach": 1710,
      "Ġaren": 1711,
      "Ġstomach": 1712,
      "ĠMary": 1713,
      "Ġproble": 1714,
      "Ġsupp": 1715,
      "Ġanything": 1716,
      "Ġmetal": 1717,
      "eb": 1718,
      "gu": 1719,
      "Ġcake": 1720,
      "Ġfaster": 1721,
      "Ġlangu": 1722,
      "ases": 1723,
      "ics": 1724,
      "icycle": 1725,
      "iling": 1726,
      "Ġstick": 1727,
      "ĠSn": 1728,
      "Ġweek": 1729,
      "igare": 1730,
      "ared": 1731,
      "Ġbutter": 1732,
      "inese": 1733,
      "Ġmicrow": 1734,
      "Ġcondition": 1735,
      "igaret": 1736,
      "ders": 1737,
      "ken": 1738,
      "Ġtur": 1739,
      "Ġmain": 1740,
      "ites": 1741,
      "ĠMan": 1742,
      "Ġwhat": 1743,
      "Ġmostly": 1744,
      "Ġpictures": 1745,
      "Ġelectricity": 1746,
      "Ġairplane": 1747,
      "ched": 1748,
      "iol": 1749,
      "Ġsour": 1750,
      "Ġpig": 1751,
      "ĠIce": 1752,
      "ctic": 1753,
      "Ġnear": 1754,
      "Ġkil": 1755,
      "Ġvehic": 1756,
      "Ġpets": 1757,
      "ocks": 1758,
      "Ġlarger": 1759,
      "Ġproduce": 1760,
      "Ġdirt": 1761,
      "ocol": 1762,
      "Ġpopular": 1763,
      "bs": 1764,
      "Ġthrew": 1765,
      "olf": 1766,
      "Ġmob": 1767,
      "Ġass": 1768,
      "Ġright": 1769,
      "Ġabs": 1770,
      "Ġwearing": 1771,
      "brush": 1772,
      "Ġpoison": 1773,
      "Ġbott": 1774,
      "Ġpiece": 1775,
      "ĠEveryone": 1776,
      "water": 1777,
      "Ġsy": 1778,
      "Ġfelt": 1779,
      "ality": 1780,
      "Ġequ": 1781,
      "Ġthrow": 1782,
      "Ġham": 1783,
      "rap": 1784,
      "Ġtreat": 1785,
      "Ġstores": 1786,
      "Ġpaint": 1787,
      "Ġgasoline": 1788,
      "Ġsolid": 1789,
      "Ġpatient": 1790,
      "Ġrequires": 1791,
      "Ġnewsp": 1792,
      "fri": 1793,
      "ients": 1794,
      "ling": 1795,
      "mas": 1796,
      "Ġbrown": 1797,
      "Ġfavor": 1798,
      "Ġmen": 1799,
      "Ġlonger": 1800,
      "raid": 1801,
      "Ġchange": 1802,
      "Ġkill": 1803,
      "Ġkids": 1804,
      "aste": 1805,
      "Ġexc": 1806,
      "Ġexist": 1807,
      "Ġju": 1808,
      "Ġallowed": 1809,
      "Ġbedroom": 1810,
      "Ġprep": 1811,
      "Ġknowledge": 1812,
      "Ġbroken": 1813,
      "Ġgrades": 1814,
      "Ġsupermarket": 1815,
      "ĠEarth": 1816,
      "ished": 1817,
      "Ġmag": 1818,
      "Ġhours": 1819,
      "Ġlow": 1820,
      "Ġthree": 1821,
      "Ġstand": 1822,
      "osed": 1823,
      "Ġseen": 1824,
      "Ġbrush": 1825,
      "Ġwriting": 1826,
      "Ġclassroom": 1827,
      "ploy": 1828,
      "Ġlaugh": 1829,
      "vice": 1830,
      "Ġtimes": 1831,
      "Ġbul": 1832,
      "Ġnothing": 1833,
      "ored": 1834,
      "stem": 1835,
      "Ġclose": 1836,
      "Ġlead": 1837,
      "Ġvide": 1838,
      "Ġsteel": 1839,
      "Ġparked": 1840,
      "Ġkinds": 1841,
      "Ġsurv": 1842,
      "Ġsmoke": 1843,
      "Ġsquare": 1844,
      "ĠBirds": 1845,
      "Ġmobile": 1846,
      "pa": 1847,
      "rist": 1848,
      "Ġcir": 1849,
      "Ġborn": 1850,
      "Ġmamm": 1851,
      "Ġmotor": 1852,
      "Ġnut": 1853,
      "Ġbeer": 1854,
      "Ġbear": 1855,
      "acter": 1856,
      "Ġreally": 1857,
      "umber": 1858,
      "aked": 1859,
      "Ġleg": 1860,
      "ards": 1861,
      "Ġclear": 1862,
      "Ġwhole": 1863,
      "Ġsalt": 1864,
      "ĠStudents": 1865,
      "friend": 1866,
      "put": 1867,
      "Ġbor": 1868,
      "Ġtop": 1869,
      "Ġmin": 1870,
      "Ġdest": 1871,
      "otton": 1872,
      "Ġheart": 1873,
      "oof": 1874,
      "amb": 1875,
      "ores": 1876,
      "ĠWh": 1877,
      "Ġplays": 1878,
      "Ġunl": 1879,
      "Ġairport": 1880,
      "Ġgarage": 1881,
      "Ġmedicine": 1882,
      "ging": 1883,
      "xy": 1884,
      "Ġset": 1885,
      "Ġcow": 1886,
      "ises": 1887,
      "Ġfarm": 1888,
      "Ġpun": 1889,
      "ically": 1890,
      "ĠPen": 1891,
      "Ġplate": 1892,
      "Ġrub": 1893,
      "ĠLions": 1894,
      "ĠChinese": 1895,
      "Ġart": 1896,
      "ĠStones": 1897,
      "Ġoper": 1898,
      "Ġhappen": 1899,
      "az": 1900,
      "lo": 1901,
      "Ġwat": 1902,
      "eral": 1903,
      "Ġben": 1904,
      "Ġfive": 1905,
      "Ġfix": 1906,
      "Ġtor": 1907,
      "Ġmaking": 1908,
      "ĠTig": 1909,
      "ĠAf": 1910,
      "Ġyoung": 1911,
      "hers": 1912,
      "Ġnecess": 1913,
      "Ġround": 1914,
      "ĠFire": 1915,
      "Ġafraid": 1916,
      "Ġattend": 1917,
      "Ġmountains": 1918,
      "Ġcloset": 1919,
      "ternet": 1920,
      "Ġradio": 1921,
      "derst": 1922,
      "Ġsystem": 1923,
      "Ġfavorite": 1924,
      "ey": 1925,
      "ges": 1926,
      "iel": 1927,
      "Ġter": 1928,
      "Ġdanc": 1929,
      "Ġnice": 1930,
      "ĠSm": 1931,
      "ĠGr": 1932,
      "ĠChrist": 1933,
      "Ġapples": 1934,
      "Ġhelps": 1935,
      "Ġdishes": 1936,
      "Ġbabies": 1937,
      "Ġlooks": 1938,
      "HE": 1939,
      "Ġcigaret": 1940,
      "Ġwed": 1941,
      "Ġbark": 1942,
      "Ġbank": 1943,
      "Ġdep": 1944,
      "Ġnext": 1945,
      "Ġchop": 1946,
      "Ġkick": 1947,
      "fect": 1948,
      "Ġconc": 1949,
      "Ġcolors": 1950,
      "Ġmeans": 1951,
      "Ġtruck": 1952,
      "Ġstudent": 1953,
      "ĠUs": 1954,
      "Ġresp": 1955,
      "Ġrabbit": 1956,
      "lasses": 1957,
      "Ġmicrowave": 1958,
      "Ġmirr": 1959,
      "vered": 1960,
      "ĠAr": 1961,
      "ĠBl": 1962,
      "ĠBook": 1963,
      "iled": 1964,
      "Ġcommun": 1965,
      "Ġtype": 1966,
      "Ġshopping": 1967,
      "Ġimpossible": 1968,
      "Ġemploy": 1969,
      "Ġtoothbrush": 1970,
      "Ġspring": 1971,
      "ĠJohn": 1972,
      "oid": 1973,
      "Ġaut": 1974,
      "Ġsay": 1975,
      "Ġfell": 1976,
      "Ġpast": 1977,
      "atoes": 1978,
      "iter": 1979,
      "ility": 1980,
      "Ġrather": 1981,
      "Ġcloth": 1982,
      "ĠBr": 1983,
      "Ġseat": 1984,
      "Ġalive": 1985,
      "ĠEleph": 1986,
      "ĠLe": 1987,
      "Ġtrash": 1988,
      "obile": 1989,
      "Ġacross": 1990,
      "Ġcele": 1991,
      "Ġdishwas": 1992,
      "Ġagainst": 1993,
      "Ġnatural": 1994,
      "ged": 1995,
      "where": 1996,
      "Ġtired": 1997,
      "Ġinv": 1998,
      "ety": 1999,
      "Ġdoing": 2000,
      "Ġrice": 2001,
      "Ġleave": 2002,
      "apers": 2003,
      "Ġcomb": 2004,
      "ĠFr": 2005,
      "iew": 2006,
      "ieve": 2007,
      "Ġworks": 2008,
      "Ġworking": 2009,
      "Ġprin": 2010,
      "Ġloves": 2011,
      "Ġwrote": 2012,
      "Ġmonkeys": 2013,
      "Ġslow": 2014,
      "Ġcalcul": 2015,
      "Ġbroke": 2016,
      "ĠAmerica": 2017,
      "ĠComput": 2018,
      "Ġjuice": 2019,
      "ah": 2020,
      "Ġable": 2021,
      "Ġba": 2022,
      "Ġble": 2023,
      "Ġbicycle": 2024,
      "Ġfuel": 2025,
      "ative": 2026,
      "Ġhat": 2027,
      "Ġloud": 2028,
      "icy": 2029,
      "ĠSe": 2030,
      "und": 2031,
      "Ġchocol": 2032,
      "Ġwords": 2033,
      "Ġfeed": 2034,
      "acks": 2035,
      "Ġarm": 2036,
      "Ġrid": 2037,
      "ffes": 2038,
      "ĠPlastic": 2039,
      "Ġeduc": 2040,
      "Ġfinish": 2041,
      "Ġdisease": 2042,
      "Ġcirc": 2043,
      "fer": 2044,
      "Ġtv": 2045,
      "Ġsound": 2046,
      "Ġcor": 2047,
      "Ġpress": 2048,
      "Ġmel": 2049,
      "Ġdance": 2050,
      "ushed": 2051,
      "Ġthink": 2052,
      "olves": 2053,
      "Ġrev": 2054,
      "Ġrece": 2055,
      "own": 2056,
      "sticks": 2057,
      "Ġmeal": 2058,
      "Ġprogr": 2059,
      "Ġglasses": 2060,
      "Ġpicked": 2061,
      "ĠDrinking": 2062,
      "Ġgenerally": 2063,
      "Ġthirsty": 2064,
      "Ġumbrella": 2065,
      "paste": 2066,
      "ugs": 2067,
      "Ġfro": 2068,
      "Ġtoget": 2069,
      "Ġdig": 2070,
      "Ġlay": 2071,
      "Ġant": 2072,
      "Ġanother": 2073,
      "Ġdrop": 2074,
      "Ġkeeps": 2075,
      "Ġeye": 2076,
      "Ġrainy": 2077,
      "Ġpenc": 2078,
      "Ġrocks": 2079,
      "Ġcelebr": 2080,
      "Ġtogether": 2081,
      "Ġsink": 2082,
      "Ġwal": 2083,
      "Ġtouch": 2084,
      "Ġint": 2085,
      "Ġgra": 2086,
      "Ġgif": 2087,
      "ĠTrees": 2088,
      "Ġlip": 2089,
      "verse": 2090,
      "ĠPeter": 2091,
      "Ġsock": 2092,
      "str": 2093,
      "Ġteach": 2094,
      "Ġplanes": 2095,
      "actor": 2096,
      "Ġcountries": 2097,
      "ĠChristmas": 2098,
      "ER": 2099,
      "dle": 2100,
      "gn": 2101,
      "tub": 2102,
      "Ġsle": 2103,
      "Ġcab": 2104,
      "Ġcotton": 2105,
      "Ġfut": 2106,
      "Ġmat": 2107,
      "Ġdam": 2108,
      "ĠTr": 2109,
      "Ġlions": 2110,
      "Ġlift": 2111,
      "Ġthus": 2112,
      "ume": 2113,
      "Ġsoap": 2114,
      "Ġsunlight": 2115,
      "Ġunderst": 2116,
      "Ġgrand": 2117,
      "airs": 2118,
      "velop": 2119,
      "Ġquick": 2120,
      "Ġrelax": 2121,
      "Ġavoid": 2122,
      "Ġlanguage": 2123,
      "xygen": 2124,
      "Ġfuture": 2125,
      "ES": 2126,
      "com": 2127,
      "nect": 2128,
      "ses": 2129,
      "uri": 2130,
      "Ġsign": 2131,
      "Ġcure": 2132,
      "Ġbit": 2133,
      "Ġpand": 2134,
      "Ġmatch": 2135,
      "Ġhol": 2136,
      "Ġdet": 2137,
      "orth": 2138,
      "Ġangry": 2139,
      "Ġdoll": 2140,
      "veral": 2141,
      "ams": 2142,
      "ific": 2143,
      "ĠBo": 2144,
      "Ġeveryday": 2145,
      "Ġcompany": 2146,
      "Ġsafe": 2147,
      "ĠRab": 2148,
      "Ġappl": 2149,
      "Ġcheese": 2150,
      "Ġexpl": 2151,
      "Ġrail": 2152,
      "cient": 2153,
      "Ġmachines": 2154,
      "ycles": 2155,
      "Ġmarket": 2156,
      "Ġgrocery": 2157,
      "Ġharmful": 2158,
      "Ġengine": 2159,
      "Ġunderstand": 2160,
      "ced": 2161,
      "ebr": 2162,
      "fess": 2163,
      "iers": 2164,
      "ians": 2165,
      "land": 2166,
      "oke": 2167,
      "ishes": 2168,
      "Ġtoaster": 2169,
      "Ġmud": 2170,
      "Ġhouses": 2171,
      "Ġdie": 2172,
      "Ġbeach": 2173,
      "Ġhabit": 2174,
      "Ġneck": 2175,
      "ults": 2176,
      "Ġseveral": 2177,
      "Ġconven": 2178,
      "Ġcoat": 2179,
      "Ġthemselves": 2180,
      "Ġearly": 2181,
      "Ġsteak": 2182,
      "box": 2183,
      "Ġfunction": 2184,
      "Ġdoctors": 2185,
      "ĠOnly": 2186,
      "Ġbananas": 2187,
      "Ġpraised": 2188,
      "Ġcommunic": 2189,
      "aw": 2190,
      "eum": 2191,
      "gers": 2192,
      "Ġ5": 2193,
      "Ġtri": 2194,
      "Ġcost": 2195,
      "Ġwip": 2196,
      "Ġinte": 2197,
      "Ġname": 2198,
      "ased": 2199,
      "Ġgi": 2200,
      "roco": 2201,
      "Ġfork": 2202,
      "acket": 2203,
      "ĠPol": 2204,
      "ĠMilk": 2205,
      "Ġalone": 2206,
      "Ġcomfortable": 2207,
      "Ġnoise": 2208,
      "Ġenc": 2209,
      "Ġsmart": 2210,
      "ief": 2211,
      "dered": 2212,
      "Ġsnake": 2213,
      "ĠUS": 2214,
      "Ġlearning": 2215,
      "Ġinsect": 2216,
      "Ġproper": 2217,
      "Ġsurvive": 2218,
      "undry": 2219,
      "rocod": 2220,
      "dies": 2221,
      "fish": 2222,
      "glasses": 2223,
      "Ġaw": 2224,
      "Ġhy": 2225,
      "Ġhoney": 2226,
      "Ġinj": 2227,
      "asure": 2228,
      "Ġocc": 2229,
      "ĠTO": 2230,
      "Ġev": 2231,
      "ĠCar": 2232,
      "Ġchang": 2233,
      "ĠBoth": 2234,
      "Ġkid": 2235,
      "Ġshell": 2236,
      "ĠGas": 2237,
      "phones": 2238,
      "Ġturns": 2239,
      "Ġquest": 2240,
      "ccer": 2241,
      "Ġreflect": 2242,
      "Ġsandw": 2243,
      "Ġcontin": 2244,
      "Ġfloat": 2245,
      "ĠSometimes": 2246,
      "Ġplanted": 2247,
      "Ġperform": 2248,
      "Ġfilled": 2249,
      "Ġfinger": 2250,
      "ĠUsually": 2251,
      "AT": 2252,
      "men": 2253,
      "Ġtax": 2254,
      "Ġsim": 2255,
      "ream": 2256,
      "Ġpou": 2257,
      "Ġmath": 2258,
      "iture": 2259,
      "oose": 2260,
      "ĠIron": 2261,
      "ution": 2262,
      "ided": 2263,
      "Ġsport": 2264,
      "Ġalread": 2265,
      "ĠDin": 2266,
      "ĠDri": 2267,
      "Ġboard": 2268,
      "Ġshouldn": 2269,
      "Ġsuch": 2270,
      "Ġdevelop": 2271,
      "ustom": 2272,
      "Ġelephants": 2273,
      "Ġcontrol": 2274,
      "Ġproducts": 2275,
      "ĠMonkeys": 2276,
      "ĠCoffee": 2277,
      "parent": 2278,
      "Ġbenef": 2279,
      "Ġwedding": 2280,
      "Ġbags": 2281,
      "Ġalready": 2282,
      "'re": 2283,
      "nis": 2284,
      "time": 2285,
      "Ġwild": 2286,
      "Ġmom": 2287,
      "Ġincre": 2288,
      "its": 2289,
      "ute": 2290,
      "Ġcard": 2291,
      "Ġsoon": 2292,
      "Ġsoccer": 2293,
      "ĠBab": 2294,
      "aptop": 2295,
      "Ġmuseum": 2296,
      "Ġphys": 2297,
      "Ġsaid": 2298,
      "ember": 2299,
      "Ġrare": 2300,
      "ival": 2301,
      "Ġtoothpaste": 2302,
      "Ġshelf": 2303,
      "Ġabsor": 2304,
      "Ġnecessary": 2305,
      "ĠElephants": 2306,
      "bage": 2307,
      "ien": 2308,
      "line": 2309,
      "rop": 2310,
      "uct": 2311,
      "Ġboss": 2312,
      "Ġdent": 2313,
      "Ġopp": 2314,
      "ĠTHE": 2315,
      "Ġans": 2316,
      "ĠSug": 2317,
      "ĠHors": 2318,
      "ĠPaper": 2319,
      "akers": 2320,
      "Ġsports": 2321,
      "apan": 2322,
      "rench": 2323,
      "Ġconnect": 2324,
      "ĠFri": 2325,
      "Ġblan": 2326,
      "Ġflower": 2327,
      "ĠJapan": 2328,
      "Ġsave": 2329,
      "Ġruns": 2330,
      "Ġmonth": 2331,
      "Ġpoliceman": 2332,
      "Ġinstr": 2333,
      "Ġgroceries": 2334,
      "Ġnormal": 2335,
      "ĠSugar": 2336,
      "Ġsil": 2337,
      "Ġsix": 2338,
      "Ġfur": 2339,
      "Ġpri": 2340,
      "Ġpud": 2341,
      "Ġpants": 2342,
      "Ġpork": 2343,
      "Ġmail": 2344,
      "Ġoxygen": 2345,
      "uses": 2346,
      "Ġru": 2347,
      "ĠBob": 2348,
      "pped": 2349,
      "Ġspend": 2350,
      "Ġplayers": 2351,
      "Ġfuneral": 2352,
      "issors": 2353,
      "Ġtransparent": 2354,
      "Ġfreez": 2355,
      "Ġmaterial": 2356,
      "acteria": 2357,
      "Ġchocolate": 2358,
      "Ġcabin": 2359,
      "ee": 2360,
      "kin": 2361,
      "me": 2362,
      "ual": 2363,
      "Ġtry": 2364,
      "Ġcou": 2365,
      "Ġcows": 2366,
      "ery": 2367,
      "ering": 2368,
      "Ġpow": 2369,
      "Ġpill": 2370,
      "Ġpair": 2371,
      "ices": 2372,
      "Ġbears": 2373,
      "ĠSand": 2374,
      "raft": 2375,
      "Ġwaste": 2376,
      "Ġwatermel": 2377,
      "ude": 2378,
      "phins": 2379,
      "urniture": 2380,
      "ĠPlaying": 2381,
      "Ġpainting": 2382,
      "Ġactiv": 2383,
      "Ġdiam": 2384,
      "Ġbright": 2385,
      "Ġdinosaurs": 2386,
      "Ġnewspaper": 2387,
      "Ġmirror": 2388,
      "Ġholid": 2389,
      "Ġinterest": 2390,
      "craft": 2391,
      "noon": 2392,
      "pr": 2393,
      "uge": 2394,
      "Ġside": 2395,
      "Ġcour": 2396,
      "Ġcrow": 2397,
      "Ġbal": 2398,
      "Ġdrag": 2399,
      "urger": 2400,
      "ĠWood": 2401,
      "Ġring": 2402,
      "Ġrace": 2403,
      "Ġlemon": 2404,
      "Ġspicy": 2405,
      "Ġasked": 2406,
      "Ġaff": 2407,
      "Ġflight": 2408,
      "Ġbrands": 2409,
      "Ġafternoon": 2410,
      "Ġgray": 2411,
      "Ġprofess": 2412,
      "ĠChick": 2413,
      "Ġcleaning": 2414,
      "Ġwheel": 2415,
      "Ġcutting": 2416,
      "Ġpetrol": 2417,
      "Ġspeed": 2418,
      "ances": 2419,
      "Ġmarried": 2420,
      "ĠTigers": 2421,
      "Ġsandwich": 2422,
      "Ġpoured": 2423,
      "AN": 2424,
      "uce": 2425,
      "inct": 2426,
      "isy": 2427,
      "Ġfer": 2428,
      "Ġpills": 2429,
      "Ġinvent": 2430,
      "Ġbeg": 2431,
      "oos": 2432,
      "ĠAs": 2433,
      "Ġstep": 2434,
      "Ġdoors": 2435,
      "utes": 2436,
      "vert": 2437,
      "ument": 2438,
      "ĠMobile": 2439,
      "Ġteam": 2440,
      "ĠDi": 2441,
      "Ġarms": 2442,
      "Ġarrest": 2443,
      "ĠNot": 2444,
      "Ġhotel": 2445,
      "Ġchef": 2446,
      "Ġchew": 2447,
      "Ġadm": 2448,
      "Ġpengu": 2449,
      "Ġprefer": 2450,
      "Ġbusiness": 2451,
      "Ġvegetar": 2452,
      "Ġimprove": 2453,
      "ground": 2454,
      "Ġaccident": 2455,
      "Ġacid": 2456,
      "Ġjumped": 2457,
      "Ġtennis": 2458,
      "Ġtransportation": 2459,
      "Ġpencil": 2460,
      "cher": 2461,
      "met": 2462,
      "Ġtail": 2463,
      "Ġtables": 2464,
      "Ġage": 2465,
      "Ġaud": 2466,
      "Ġcustom": 2467,
      "anut": 2468,
      "ont": 2469,
      "lease": 2470,
      "ators": 2471,
      "Ġdut": 2472,
      "Ġdire": 2473,
      "Ġink": 2474,
      "Ġinter": 2475,
      "Ġnumber": 2476,
      "Ġstren": 2477,
      "Ġstate": 2478,
      "ĠSal": 2479,
      "Ġreal": 2480,
      "Ġask": 2481,
      "Ġcollect": 2482,
      "Ġviol": 2483,
      "Ġblow": 2484,
      "phone": 2485,
      "Ġlaundry": 2486,
      "Ġpocket": 2487,
      "Ġtrains": 2488,
      "Ġbathtub": 2489,
      "aceship": 2490,
      "Ġcareful": 2491,
      "Ġpatients": 2492,
      "Ġdied": 2493,
      "Ġtigers": 2494,
      "Ġevening": 2495,
      "Ġlocal": 2496,
      "Ġvisit": 2497,
      "Ġticket": 2498,
      "Ġcrimin": 2499,
      "Ġvehicle": 2500,
      "Ġdestro": 2501,
      "Ġwatched": 2502,
      "Ġencou": 2503,
      "aving": 2504,
      "ls": 2505,
      "upp": 2506,
      "Ġ4": 2507,
      "onds": 2508,
      "Ġhang": 2509,
      "ask": 2510,
      "Ġonto": 2511,
      "ĠSqu": 2512,
      "oses": 2513,
      "ĠCows": 2514,
      "umn": 2515,
      "Ġweap": 2516,
      "aken": 2517,
      "Ġenem": 2518,
      "Ġflies": 2519,
      "Ġdrives": 2520,
      "Ġbreath": 2521,
      "Ġcovered": 2522,
      "Ġhimself": 2523,
      "ĠAnim": 2524,
      "ĠDog": 2525,
      "body": 2526,
      "Ġsmoking": 2527,
      "Ġbatter": 2528,
      "Ġsolar": 2529,
      "Ġsinger": 2530,
      "Ġfilm": 2531,
      "Ġpurple": 2532,
      "Ġphotos": 2533,
      "Ġunivers": 2534,
      "Ġvacation": 2535,
      "Ġappearance": 2536,
      "Ġvideo": 2537,
      "Ġmammals": 2538,
      "ĠBooks": 2539,
      "ĠComputers": 2540,
      "ĠHorses": 2541,
      "dges": 2542,
      "ues": 2543,
      "Ġap": 2544,
      "Ġcent": 2545,
      "reen": 2546,
      "Ġfurniture": 2547,
      "Ġtold": 2548,
      "Ġlaptop": 2549,
      "ops": 2550,
      "Ġthin": 2551,
      "ĠMoon": 2552,
      "Ġsunsh": 2553,
      "ĠGir": 2554,
      "Ġlights": 2555,
      "Ġgirls": 2556,
      "Ġsalty": 2557,
      "Ġpaid": 2558,
      "Ġfruits": 2559,
      "Ġfriendly": 2560,
      "Ġserved": 2561,
      "ĠTeac": 2562,
      "ĠSmo": 2563,
      "Ġconcert": 2564,
      "Ġduty": 2565,
      "Ġsunshine": 2566,
      "den": 2567,
      "got": 2568,
      "Ġtap": 2569,
      "Ġtest": 2570,
      "Ġcam": 2571,
      "ising": 2572,
      "Ġfiel": 2573,
      "Ġpost": 2574,
      "lege": 2575,
      "Ġmix": 2576,
      "Ġcant": 2577,
      "Ġnotes": 2578,
      "Ġlif": 2579,
      "aced": 2580,
      "aches": 2581,
      "Ġthief": 2582,
      "Ġdol": 2583,
      "Ġshirt": 2584,
      "ĠChe": 2585,
      "anta": 2586,
      "Ġneeded": 2587,
      "aily": 2588,
      "Ġscr": 2589,
      "Ġharder": 2590,
      "Ġwrong": 2591,
      "Ġprevent": 2592,
      "Ġpainted": 2593,
      "crete": 2594,
      "ammers": 2595,
      "ĠShoes": 2596,
      "ĠThis": 2597,
      "Ġships": 2598,
      "Ġguns": 2599,
      "flies": 2600,
      "Ġtaller": 2601,
      "Ġcurtain": 2602,
      "ebra": 2603,
      "Ġkilled": 2604,
      "ĠArctic": 2605,
      "Ġcabinet": 2606,
      "ikes": 2607,
      "oor": 2608,
      "tes": 2609,
      "ination": 2610,
      "Ġcamp": 2611,
      "Ġpan": 2612,
      "Ġlic": 2613,
      "icycles": 2614,
      "Ġliked": 2615,
      "Ġforgot": 2616,
      "ache": 2617,
      "Ġstor": 2618,
      "olog": 2619,
      "Ġshot": 2620,
      "Ġshine": 2621,
      "Ġshows": 2622,
      "Ġitem": 2623,
      "ĠBread": 2624,
      "Ġski": 2625,
      "Ġprice": 2626,
      "ĠJim": 2627,
      "Ġcover": 2628,
      "Ġclothing": 2629,
      "Ġimm": 2630,
      "Ġability": 2631,
      "Ġgrows": 2632,
      "rooms": 2633,
      "uitar": 2634,
      "Ġparking": 2635,
      "Ġtraveling": 2636,
      "Ġclosed": 2637,
      "Ġmicro": 2638,
      "ĠApple": 2639,
      "Ġtypes": 2640,
      "Ġdancing": 2641,
      "Ġchopsticks": 2642,
      "Ġdishwasher": 2643,
      "Ġrides": 2644,
      "Ġbitter": 2645,
      "Ġrailway": 2646,
      "Ġabsorb": 2647,
      "Ġansw": 2648,
      "bor": 2649,
      "can": 2650,
      "ned": 2651,
      "walk": 2652,
      "ye": 2653,
      "Ġer": 2654,
      "Ġsend": 2655,
      "Ġcult": 2656,
      "Ġwife": 2657,
      "Ġbill": 2658,
      "Ġmid": 2659,
      "Ġinform": 2660,
      "Ġnood": 2661,
      "Ġgolf": 2662,
      "icop": 2663,
      "Ġbeh": 2664,
      "Ġbeef": 2665,
      "ĠSw": 2666,
      "ention": 2667,
      "Ġhist": 2668,
      "ĠWatch": 2669,
      "Ġclock": 2670,
      "ĠBanan": 2671,
      "Ġnoisy": 2672,
      "Ġmem": 2673,
      "Ġorgan": 2674,
      "Ġordered": 2675,
      "ĠJane": 2676,
      "ips": 2677,
      "ĠSte": 2678,
      "ĠNew": 2679,
      "Ġexper": 2680,
      "Ġvegetable": 2681,
      "Ġelectron": 2682,
      "Ġsurface": 2683,
      "Ġproblem": 2684,
      "ĠGrand": 2685,
      "Ġcigarette": 2686,
      "Ġwallet": 2687,
      "ĠRabbits": 2688,
      "ĠDinosaur": 2689,
      "Ġafford": 2690,
      "Ġdirect": 2691,
      "Ġdestroy": 2692,
      "RE": 2693,
      "afe": 2694,
      "oles": 2695,
      "tar": 2696,
      "Ġbra": 2697,
      "Ġpink": 2698,
      "leg": 2699,
      "Ġhi": 2700,
      "Ġguitar": 2701,
      "Ġwears": 2702,
      "Ġitself": 2703,
      "ĠDad": 2704,
      "Ġplayer": 2705,
      "Ġvill": 2706,
      "arks": 2707,
      "Ġdeath": 2708,
      "agers": 2709,
      "Ġadults": 2710,
      "Ġpregn": 2711,
      "Ġgirlfriend": 2712,
      "Ġattract": 2713,
      "Ġzebra": 2714,
      "Ġpepp": 2715,
      "Ġegg": 2716,
      "urtles": 2717,
      "Ġcouldn": 2718,
      "Ġtowel": 2719,
      "Ġuniverse": 2720,
      "Ġtomato": 2721,
      "Ġturtle": 2722,
      "Ġclearly": 2723,
      "ĠWhales": 2724,
      "Ġslept": 2725,
      "Ġconvenient": 2726,
      "Ġinsects": 2727,
      "Ġblanket": 2728,
      "ĠSmoking": 2729,
      "Ġhistory": 2730,
      "bed": 2731,
      "most": 2732,
      "Ġtaken": 2733,
      "Ġsel": 2734,
      "Ġcakes": 2735,
      "Ġpens": 2736,
      "Ġpump": 2737,
      "Ġpossible": 2738,
      "Ġhour": 2739,
      "Ġhuge": 2740,
      "Ġdaily": 2741,
      "Ġheld": 2742,
      "rible": 2743,
      "Ġreach": 2744,
      "Ġshare": 2745,
      "ury": 2746,
      "urope": 2747,
      "ĠMen": 2748,
      "Ġneigh": 2749,
      "Ġroof": 2750,
      "Ġseason": 2751,
      "Ġspaceship": 2752,
      "Ġjacket": 2753,
      "hess": 2754,
      "Ġeverything": 2755,
      "Ġdeg": 2756,
      "Ġstored": 2757,
      "Ġfeeling": 2758,
      "Ġquality": 2759,
      "Ġwindows": 2760,
      "Ġspecial": 2761,
      "Ġamong": 2762,
      "Ġbusy": 2763,
      "Ġchairs": 2764,
      "Ġsitting": 2765,
      "Ġremote": 2766,
      "Ġrequire": 2767,
      "Ġbelong": 2768,
      "Ġcharge": 2769,
      "ĠApples": 2770,
      "Ġproblems": 2771,
      "Ġbottles": 2772,
      "Ġunlock": 2773,
      "ĠLeaves": 2774,
      "Ġgift": 2775,
      "Ġinjured": 2776,
      "Ġlicense": 2777,
      "ĠDinosaurs": 2778,
      "IN": 2779,
      "cy": 2780,
      "Ġing": 2781,
      "Ġsize": 2782,
      "Ġcame": 2783,
      "reat": 2784,
      "Ġwide": 2785,
      "Ġmist": 2786,
      "Ġmelt": 2787,
      "Ġdream": 2788,
      "aring": 2789,
      "Ġincl": 2790,
      "Ġnails": 2791,
      "Ġancient": 2792,
      "Ġel": 2793,
      "use": 2794,
      "Ġthought": 2795,
      "ung": 2796,
      "osqu": 2797,
      "ĠCrocod": 2798,
      "ĠMoney": 2799,
      "Ġkite": 2800,
      "Ġgoal": 2801,
      "Ġjud": 2802,
      "Ġsunglasses": 2803,
      "Ġblock": 2804,
      "estival": 2805,
      "Ġwanted": 2806,
      "Ġabove": 2807,
      "Ġcheap": 2808,
      "Ġscreen": 2809,
      "Ġhardware": 2810,
      "Ġfishing": 2811,
      "ĠPlants": 2812,
      "Ġrestaurants": 2813,
      "Ġhund": 2814,
      "Ġfamous": 2815,
      "Ġsmooth": 2816,
      "Ġshapes": 2817,
      "Ġrecord": 2818,
      "ĠClot": 2819,
      "Ġgradu": 2820,
      "Ġdistance": 2821,
      "Ġcaused": 2822,
      "ĠSnakes": 2823,
      "Ġconditioner": 2824,
      "amboo": 2825,
      "Ġfixed": 2826,
      "Ġdentist": 2827,
      "Ġinstrument": 2828,
      "Ġpillow": 2829,
      "Ġenemy": 2830,
      "Ġingred": 2831,
      "bon": 2832,
      "iet": 2833,
      "ward": 2834,
      "zen": 2835,
      "Ġut": 2836,
      "Ġbrain": 2837,
      "isp": 2838,
      "Ġhate": 2839,
      "Ġdess": 2840,
      "orrow": 2841,
      "arry": 2842,
      "ashing": 2843,
      "asters": 2844,
      "Ġann": 2845,
      "ili": 2846,
      "Ġbegan": 2847,
      "ĠSanta": 2848,
      "ently": 2849,
      "elly": 2850,
      "ĠPot": 2851,
      "ĠPig": 2852,
      "ĠCook": 2853,
      "Ġchoose": 2854,
      "stron": 2855,
      "ĠDif": 2856,
      "Ġsheep": 2857,
      "Ġputs": 2858,
      "Ġasleep": 2859,
      "Ġcola": 2860,
      "ĠEg": 2861,
      "ĠEx": 2862,
      "ĠEurope": 2863,
      "Ġvar": 2864,
      "Ġval": 2865,
      "Ġeverywhere": 2866,
      "Ġuseful": 2867,
      "Ġsauce": 2868,
      "ava": 2869,
      "Ġcreate": 2870,
      "ĠInternet": 2871,
      "Ġpeel": 2872,
      "Ġpeanut": 2873,
      "Ġfloating": 2874,
      "Ġfalls": 2875,
      "ipped": 2876,
      "Ġsubway": 2877,
      "Ġvolcan": 2878,
      "Ġmeeting": 2879,
      "Ġobjects": 2880,
      "Ġminutes": 2881,
      "ĠAfric": 2882,
      "Ġkicked": 2883,
      "Ġsocks": 2884,
      "Ġincrease": 2885,
      "Ġvegetarian": 2886,
      "ĠAnimals": 2887,
      "Ġnoodles": 2888,
      "ib": 2889,
      "ium": 2890,
      "ials": 2891,
      "Ġ9": 2892,
      "Ġes": 2893,
      "Ġil": 2894,
      "Ġbaked": 2895,
      "Ġfre": 2896,
      "Ġfan": 2897,
      "Ġfac": 2898,
      "lex": 2899,
      "Ġhall": 2900,
      "Ġhig": 2901,
      "ests": 2902,
      "Ġlab": 2903,
      "ĠTon": 2904,
      "Ġlim": 2905,
      "Ġyard": 2906,
      "eler": 2907,
      "ider": 2908,
      "ĠCat": 2909,
      "Ġrises": 2910,
      "cept": 2911,
      "ĠBut": 2912,
      "Ġfront": 2913,
      "Ġseeds": 2914,
      "Ġspread": 2915,
      "Ġteleph": 2916,
      "Ġjunk": 2917,
      "Ġroast": 2918,
      "ĠElect": 2919,
      "Ġfeather": 2920,
      "ĠGo": 2921,
      "Ġdef": 2922,
      "Ġscar": 2923,
      "ived": 2924,
      "Ġbuildings": 2925,
      "Ġchickens": 2926,
      "Ġmedical": 2927,
      "Ġacceler": 2928,
      "umbers": 2929,
      "Ġcalls": 2930,
      "Ġletter": 2931,
      "Ġillness": 2932,
      "Ġtreatment": 2933,
      "Ġslowly": 2934,
      "Ġpowder": 2935,
      "Ġaudience": 2936,
      "Ġapart": 2937,
      "ĠTeachers": 2938,
      "Ġelectronic": 2939,
      "stronaut": 2940,
      "Ġilleg": 2941,
      "cut": 2942,
      "cri": 2943,
      "ees": 2944,
      "ered": 2945,
      "oice": 2946,
      "year": 2947,
      "Ġtires": 2948,
      "ined": 2949,
      "Ġsus": 2950,
      "Ġcities": 2951,
      "rect": 2952,
      "Ġtoes": 2953,
      "Ġmiss": 2954,
      "otion": 2955,
      "irre": 2956,
      "ĠHer": 2957,
      "ĠPa": 2958,
      "ĠPand": 2959,
      "amed": 2960,
      "Ġrot": 2961,
      "Ġsecon": 2962,
      "Ġexh": 2963,
      "ĠDol": 2964,
      "ĠFood": 2965,
      "Ġbrings": 2966,
      "Ġbricks": 2967,
      "ĠLight": 2968,
      "ĠJe": 2969,
      "ĠRocks": 2970,
      "Ġswims": 2971,
      "Ġdining": 2972,
      "Ġfeels": 2973,
      "Ġdesign": 2974,
      "Ġadv": 2975,
      "Ġsteal": 2976,
      "Ġattention": 2977,
      "Ġbarbe": 2978,
      "ucle": 2979,
      "Ġbathing": 2980,
      "Ġgarbage": 2981,
      "Ġstopped": 2982,
      "Ġchecked": 2983,
      "Ġparts": 2984,
      "Ġtickets": 2985,
      "Ġbottom": 2986,
      "Ġprepare": 2987,
      "Ġboring": 2988,
      "Ġtorto": 2989,
      "Ġeducation": 2990,
      "Ġpressure": 2991,
      "ĠDiam": 2992,
      "Ġarrested": 2993,
      "Ġuniversity": 2994,
      "Ġmicrosc": 2995,
      "osquit": 2996,
      "Ġbarbec": 2997,
      "corn": 2998,
      "ior": 2999,
      "iens": 3000,
      "lor": 3001,
      "oom": 3002,
      "pect": 3003,
      "Ġ6": 3004,
      "Ġess": 3005,
      "Ġtell": 3006,
      "Ġcafe": 3007,
      "erv": 3008,
      "Ġped": 3009,
      "Ġpos": 3010,
      "Ġmind": 3011,
      "Ġhon": 3012,
      "Ġhur": 3013,
      "Ġhole": 3014,
      "Ġdone": 3015,
      "Ġdies": 3016,
      "Ġdue": 3017,
      "itary": 3018,
      "Ġcancer": 3019,
      "irts": 3020,
      "Ġthous": 3021,
      "ads": 3022,
      "vern": 3023,
      "Ġsoil": 3024,
      "Ġcloud": 3025,
      "Ġsew": 3026,
      "Ġconcrete": 3027,
      "Ġjam": 3028,
      "Ġroll": 3029,
      "Ġsunny": 3030,
      "Ġbutcher": 3031,
      "Ġdeep": 3032,
      "Ġdevice": 3033,
      "Ġsleeps": 3034,
      "Ġsail": 3035,
      "Ġbuying": 3036,
      "ĠAntar": 3037,
      "Ġhappiness": 3038,
      "ĠWatermel": 3039,
      "Ġballs": 3040,
      "Ġhunt": 3041,
      "cessive": 3042,
      "ĠVe": 3043,
      "Ġgiraffes": 3044,
      "Ġsubst": 3045,
      "Ġdecor": 3046,
      "ĠAmerican": 3047,
      "ĠFlowers": 3048,
      "Ġextinct": 3049,
      "Ġnormally": 3050,
      "Ġstarted": 3051,
      "Ġhamb": 3052,
      "Ġfarmers": 3053,
      "Ġrespons": 3054,
      "Ġanswer": 3055,
      "ĠClothes": 3056,
      "Ġdessert": 3057,
      "Ġvolcano": 3058,
      "ĠAntarctic": 3059,
      "ON": 3060,
      "bers": 3061,
      "bul": 3062,
      "my": 3063,
      "rots": 3064,
      "vate": 3065,
      "Ġtong": 3066,
      "Ġsong": 3067,
      "ism": 3068,
      "Ġpupp": 3069,
      "ening": 3070,
      "Ġlava": 3071,
      "omes": 3072,
      "Ġarea": 3073,
      "Ġlighter": 3074,
      "Ġstress": 3075,
      "ĠSleep": 3076,
      "unt": 3077,
      "Ġren": 3078,
      "Ġreco": 3079,
      "urgers": 3080,
      "ĠPh": 3081,
      "Ġchur": 3082,
      "Ġrac": 3083,
      "stick": 3084,
      "ĠBas": 3085,
      "ains": 3086,
      "ĠDon": 3087,
      "Ġcollege": 3088,
      "Ġboys": 3089,
      "Ġend": 3090,
      "Ġmean": 3091,
      "Ġswam": 3092,
      "Ġprocess": 3093,
      "Ġuseless": 3094,
      "Ġdeaf": 3095,
      "Ġkeys": 3096,
      "Ġprison": 3097,
      "dern": 3098,
      "Ġgrey": 3099,
      "ĠAnts": 3100,
      "Ġgrown": 3101,
      "Ġcleaned": 3102,
      "Ġpoll": 3103,
      "cially": 3104,
      "Ġcups": 3105,
      "Ġbarber": 3106,
      "ĠInd": 3107,
      "Ġways": 3108,
      "Ġago": 3109,
      "Ġexams": 3110,
      "Ġpotato": 3111,
      "Ġheavier": 3112,
      "Ġrabbits": 3113,
      "ĠUnited": 3114,
      "Ġcalculator": 3115,
      "Ġfrozen": 3116,
      "ĠBabies": 3117,
      "ĠGira": 3118,
      "ĠDifferent": 3119,
      "uclear": 3120,
      "IT": 3121,
      "uff": 3122,
      "Ġsides": 3123,
      "Ġbin": 3124,
      "Ġfight": 3125,
      "Ġhar": 3126,
      "Ġlad": 3127,
      "Ġcandy": 3128,
      "Ġstory": 3129,
      "ĠHigh": 3130,
      "adition": 3131,
      "Ġreason": 3132,
      "ĠMo": 3133,
      "Ġatm": 3134,
      "Ġwasher": 3135,
      "ĠBacteria": 3136,
      "Ġcomed": 3137,
      "Ġmoving": 3138,
      "Ġjail": 3139,
      "Ġnobody": 3140,
      "Ġboats": 3141,
      "ational": 3142,
      "Ġvine": 3143,
      "Ġgoods": 3144,
      "Ġflat": 3145,
      "Ġtrou": 3146,
      "ĠRun": 3147,
      "ĠStates": 3148,
      "Ġexpress": 3149,
      "Ġwrites": 3150,
      "Ġtrave": 3151,
      "uits": 3152,
      "Ġfunny": 3153,
      "Ġlooked": 3154,
      "Ġsurger": 3155,
      "Ġcreature": 3156,
      "ierce": 3157,
      "Ġceiling": 3158,
      "Ġrecyc": 3159,
      "Ġ10": 3160,
      "Ġfingers": 3161,
      "Ġtools": 3162,
      "Ġmaterials": 3163,
      "Ġcorrect": 3164,
      "Ġquickly": 3165,
      "Ġpanda": 3166,
      "ĠGasoline": 3167,
      "Ġactivity": 3168,
      "Ġweapon": 3169,
      "Ġskiing": 3170,
      "Ġutens": 3171,
      "Ġhigher": 3172,
      "ET": 3173,
      "OR": 3174,
      "niv": 3175,
      "oves": 3176,
      "Ġug": 3177,
      "Ġign": 3178,
      "Ġtaught": 3179,
      "Ġcred": 3180,
      "Ġfact": 3181,
      "Ġfence": 3182,
      "Ġhipp": 3183,
      "Ġholes": 3184,
      "Ġinternet": 3185,
      "itten": 3186,
      "ilies": 3187,
      "Ġliver": 3188,
      "Ġthose": 3189,
      "Ġstraw": 3190,
      "ĠSally": 3191,
      "une": 3192,
      "ĠPres": 3193,
      "chan": 3194,
      "Ġwhales": 3195,
      "Ġcarbon": 3196,
      "Ġseas": 3197,
      "Ġdrugs": 3198,
      "Ġgovern": 3199,
      "Ġjo": 3200,
      "Ġbloom": 3201,
      "Ġbrushed": 3202,
      "esty": 3203,
      "Ġsleepy": 3204,
      "Ġhotter": 3205,
      "Ġallerg": 3206,
      "Ġplanets": 3207,
      "Ġearn": 3208,
      "ustr": 3209,
      "cious": 3210,
      "Ġrelieve": 3211,
      "peed": 3212,
      "ĠKn": 3213,
      "Ġbackp": 3214,
      "Ġsells": 3215,
      "Ġdryer": 3216,
      "Ġdecided": 3217,
      "Ġcrying": 3218,
      "Ġturkey": 3219,
      "Ġvehicles": 3220,
      "ĠAfter": 3221,
      "Ġemployees": 3222,
      "Ġrules": 3223,
      "Ġdiamond": 3224,
      "Ġsidewalk": 3225,
      "Ġdragon": 3226,
      "Ġprofession": 3227,
      "Ġcustomers": 3228,
      "Ġstreng": 3229,
      "Ġdirectly": 3230,
      "ĠRunning": 3231,
      "IS": 3232,
      "iver": 3233,
      "ney": 3234,
      "oons": 3235,
      "Ġtails": 3236,
      "Ġchess": 3237,
      "Ġfold": 3238,
      "Ġfierce": 3239,
      "Ġmass": 3240,
      "Ġhates": 3241,
      "Ġdau": 3242,
      "Ġnon": 3243,
      "omb": 3244,
      "ĠSc": 3245,
      "riage": 3246,
      "ental": 3247,
      "Ġrepl": 3248,
      "ĠPro": 3249,
      "ĠCa": 3250,
      "ĠMother": 3251,
      "Ġsocial": 3252,
      "Ġrise": 3253,
      "ĠBears": 3254,
      "ĠBicycles": 3255,
      "Ġsecre": 3256,
      "Ġword": 3257,
      "Ġmoist": 3258,
      "Ġrob": 3259,
      "Ġbecame": 3260,
      "Ġaffect": 3261,
      "Ġsuns": 3262,
      "Ġblind": 3263,
      "Ġuncom": 3264,
      "Ġbrick": 3265,
      "ĠLion": 3266,
      "ĠGe": 3267,
      "ĠGold": 3268,
      "Ġlock": 3269,
      "Ġelev": 3270,
      "Ġhelpful": 3271,
      "angar": 3272,
      "izes": 3273,
      "Ġadvert": 3274,
      "Ġhighway": 3275,
      "Ġspec": 3276,
      "Ġslipp": 3277,
      "Ġcupboard": 3278,
      "Ġrelations": 3279,
      "Ġsmells": 3280,
      "Ġ100": 3281,
      "Ġsoldiers": 3282,
      "Ġkeyboard": 3283,
      "Ġtypically": 3284,
      "Ġpigs": 3285,
      "Ġexcited": 3286,
      "Ġreceived": 3287,
      "Ġdigest": 3288,
      "Ġgrav": 3289,
      "Ġtrip": 3290,
      "Ġmailbox": 3291,
      "Ġinteresting": 3292,
      "Ġpregnant": 3293,
      "aditional": 3294,
      "Ġsurgery": 3295,
      "Ġallergic": 3296,
      "EN": 3297,
      "bles": 3298,
      "bag": 3299,
      "dr": 3300,
      "gest": 3301,
      "zy": 3302,
      "Ġcos": 3303,
      "Ġbake": 3304,
      "Ġboun": 3305,
      "Ġtoy": 3306,
      "Ġnorth": 3307,
      "iced": 3308,
      "ĠHarry": 3309,
      "verage": 3310,
      "Ġshines": 3311,
      "rage": 3312,
      "allow": 3313,
      "ĠMus": 3314,
      "Ġmyself": 3315,
      "Ġkiss": 3316,
      "Ġleather": 3317,
      "Ġmod": 3318,
      "Ġcolder": 3319,
      "Ġboiling": 3320,
      "ighted": 3321,
      "Ġmeant": 3322,
      "Ġmeals": 3323,
      "ĠFoot": 3324,
      "Ġmakeup": 3325,
      "Ġtrop": 3326,
      "ĠRef": 3327,
      "Ġdisc": 3328,
      "Ġwalls": 3329,
      "Ġsinging": 3330,
      "Ġliquids": 3331,
      "ĠSharks": 3332,
      "Ġforeign": 3333,
      "Ġremember": 3334,
      "lent": 3335,
      "Ġpopcorn": 3336,
      "Ġphotog": 3337,
      "Ġwait": 3338,
      "Ġconsum": 3339,
      "Ġequip": 3340,
      "Ġnutr": 3341,
      "Ġpunish": 3342,
      "Ġrespect": 3343,
      "Ġprogram": 3344,
      "Ġdropped": 3345,
      "Ġawake": 3346,
      "Ġchanged": 3347,
      "ĠDriving": 3348,
      "Ġmonths": 3349,
      "Ġpenguins": 3350,
      "ĠBananas": 3351,
      "Ġneighbor": 3352,
      "Ġmicroscope": 3353,
      "Ġtongue": 3354,
      "Ġcredit": 3355,
      "Ġelevator": 3356,
      "na": 3357,
      "ody": 3358,
      "ray": 3359,
      "uary": 3360,
      "Ġide": 3361,
      "Ġsizes": 3362,
      "Ġwool": 3363,
      "Ġpul": 3364,
      "Ġmice": 3365,
      "Ġmess": 3366,
      "orter": 3367,
      "Ġinn": 3368,
      "itted": 3369,
      "Ġline": 3370,
      "ĠTurn": 3371,
      "oms": 3372,
      "Ġonline": 3373,
      "ĠIN": 3374,
      "ĠAt": 3375,
      "Ġstuck": 3376,
      "ĠHE": 3377,
      "oll": 3378,
      "Ġshake": 3379,
      "Ġshorter": 3380,
      "Ġcarried": 3381,
      "Ġsoci": 3382,
      "Ġtears": 3383,
      "Ġplayground": 3384,
      "Ġbodies": 3385,
      "Ġmeasure": 3386,
      "ately": 3387,
      "ĠFebr": 3388,
      "Ġyourself": 3389,
      "Ġflood": 3390,
      "Ġmush": 3391,
      "Ġpract": 3392,
      "phin": 3393,
      "Ġtrack": 3394,
      "Ġelements": 3395,
      "Ġhelicop": 3396,
      "Ġscissors": 3397,
      "Ġourselves": 3398,
      "Ġcleaner": 3399,
      "tered": 3400,
      "Ġmarriage": 3401,
      "ĠAlcohol": 3402,
      "Ġcauses": 3403,
      "Ġsource": 3404,
      "Ġmotorc": 3405,
      "Ġterrible": 3406,
      "Ġautumn": 3407,
      "Ġloudly": 3408,
      "Ġlips": 3409,
      "ebras": 3410,
      "Ġquestions": 3411,
      "Ġinvented": 3412,
      "Ġmiddle": 3413,
      "Ġpepper": 3414,
      "Ġjudge": 3415,
      "ĠPigs": 3416,
      "ĠFootball": 3417,
      "Ġsociety": 3418,
      "ĠFebruary": 3419,
      "cing": 3420,
      "ded": 3421,
      "een": 3422,
      "hop": 3423,
      "oint": 3424,
      "Ġastronaut": 3425,
      "inated": 3426,
      "erts": 3427,
      "Ġbite": 3428,
      "Ġbones": 3429,
      "Ġbamboo": 3430,
      "isk": 3431,
      "Ġpond": 3432,
      "Ġpapers": 3433,
      "Ġmale": 3434,
      "Ġnur": 3435,
      "Ġnail": 3436,
      "Ġnature": 3437,
      "Ġlater": 3438,
      "Ġluck": 3439,
      "ĠTrain": 3440,
      "omen": 3441,
      "icial": 3442,
      "Ġlived": 3443,
      "Ġsto": 3444,
      "Ġstri": 3445,
      "ĠSk": 3446,
      "ential": 3447,
      "ĠPain": 3448,
      "ĠCold": 3449,
      "Ġath": 3450,
      "Ġrul": 3451,
      "ĠYour": 3452,
      "Ġjung": 3453,
      "Ġboiled": 3454,
      "Ġvit": 3455,
      "Ġbutton": 3456,
      "Ġsuck": 3457,
      "Ġcompet": 3458,
      "ĠRest": 3459,
      "ĠOil": 3460,
      "Ġcleans": 3461,
      "Ġhaircut": 3462,
      "Ġscience": 3463,
      "Ġlightning": 3464,
      "Ġgrowing": 3465,
      "Ġhappens": 3466,
      "Ġrains": 3467,
      "Ġpret": 3468,
      "Ġsteam": 3469,
      "Ġspeaking": 3470,
      "Ġlanded": 3471,
      "ancy": 3472,
      "iction": 3473,
      "Ġsweat": 3474,
      "Ġsolve": 3475,
      "Ġcere": 3476,
      "Ġservice": 3477,
      "Ġpotatoes": 3478,
      "ĠBeing": 3479,
      "Ġpurch": 3480,
      "Ġphoto": 3481,
      "Ġradi": 3482,
      "Ġengines": 3483,
      "Ġ30": 3484,
      "Ġadded": 3485,
      "Ġpoisonous": 3486,
      "Ġbulb": 3487,
      "Ġrubber": 3488,
      "Ġdepos": 3489,
      "Ġmatter": 3490,
      "Ġcommunication": 3491,
      "ĠPolar": 3492,
      "Ġtaxi": 3493,
      "Ġphysical": 3494,
      "Ġcouch": 3495,
      "Ġholiday": 3496,
      "Ġcarefully": 3497,
      "Ġinformation": 3498,
      "ĠSwim": 3499,
      "ĠGrandma": 3500,
      "Ġinclud": 3501,
      "ĠCrocodiles": 3502,
      "Ġlabor": 3503,
      "ĠTony": 3504,
      "ĠDolphins": 3505,
      "Ġessential": 3506,
      "ĠVeget": 3507,
      "ĠSleeping": 3508,
      "Ġtrouble": 3509,
      "Ġbackpack": 3510,
      "ĠCaes": 3511,
      "Ġuncomfortable": 3512,
      "Ġrelationship": 3513,
      "AS": 3514,
      "OO": 3515,
      "bow": 3516,
      "cle": 3517,
      "ein": 3518,
      "ever": 3519,
      "oors": 3520,
      "pan": 3521,
      "rot": 3522,
      "speed": 3523,
      "Ġcop": 3524,
      "Ġfail": 3525,
      "Ġhide": 3526,
      "Ġhired": 3527,
      "Ġdad": 3528,
      "ories": 3529,
      "Ġgives": 3530,
      "Ġeast": 3531,
      "ushing": 3532,
      "ilar": 3533,
      "Ġbeans": 3534,
      "acy": 3535,
      "Ġthick": 3536,
      "Ġreport": 3537,
      "ĠPe": 3538,
      "ama": 3539,
      "idents": 3540,
      "ĠCan": 3541,
      "ĠBath": 3542,
      "Ġseats": 3543,
      "ĠDe": 3544,
      "Ġconside": 3545,
      "Ġmodern": 3546,
      "Ġcolour": 3547,
      "Ġrocket": 3548,
      "ures": 3549,
      "ĠFrench": 3550,
      "ketball": 3551,
      "Ġtraditional": 3552,
      "Ġseeing": 3553,
      "Ġsaved": 3554,
      "Ġarri": 3555,
      "Ġlog": 3556,
      "lling": 3557,
      "Ġcheaper": 3558,
      "Ġqual": 3559,
      "Ġdisl": 3560,
      "ccess": 3561,
      "Ġpoint": 3562,
      "Ġcolorful": 3563,
      "ĠPlanes": 3564,
      "Ġhung": 3565,
      "Ġslower": 3566,
      "creen": 3567,
      "pecially": 3568,
      "ucks": 3569,
      "Ġmarry": 3570,
      "Ġtalked": 3571,
      "Ġwhereas": 3572,
      "lender": 3573,
      "Ġhorses": 3574,
      "Ġbreathing": 3575,
      "Ġfatig": 3576,
      "Ġsharks": 3577,
      "Ġgoldfish": 3578,
      "Ġnewspapers": 3579,
      "Ġmagaz": 3580,
      "Ġlaughing": 3581,
      "Ġterr": 3582,
      "Ġarmy": 3583,
      "Ġapplied": 3584,
      "Ġsimilar": 3585,
      "ĠChickens": 3586,
      "Ġmemory": 3587,
      "ĠEggs": 3588,
      "Ġespecially": 3589,
      "ĠJeff": 3590,
      "Ġdesigned": 3591,
      "ĠAntarctica": 3592,
      "ĠBasketball": 3593,
      "ĠGiraffes": 3594,
      "Ġatmosp": 3595,
      "Ġvinegar": 3596,
      "Ġgovernment": 3597,
      "Ġdaughter": 3598,
      "Ġruler": 3599,
      "Ġjungle": 3600,
      "Ġvitam": 3601,
      "Ġconsidered": 3602,
      "AL": 3603,
      "ai": 3604,
      "cope": 3605,
      "da": 3606,
      "mates": 3607,
      "Ġsings": 3608,
      "isf": 3609,
      "ongs": 3610,
      "lete": 3611,
      "Ġhus": 3612,
      "alty": 3613,
      "asing": 3614,
      "vere": 3615,
      "illed": 3616,
      "Ġforget": 3617,
      "ĠAustr": 3618,
      "ĠHospit": 3619,
      "Ġshoot": 3620,
      "ĠPet": 3621,
      "ĠPut": 3622,
      "ĠCon": 3623,
      "ĠCal": 3624,
      "umpl": 3625,
      "ĠMic": 3626,
      "Ġwashes": 3627,
      "ĠWin": 3628,
      "ĠWork": 3629,
      "Ġchased": 3630,
      "Ġkites": 3631,
      "Ġlen": 3632,
      "ept": 3633,
      "Ġconf": 3634,
      "Ġbucket": 3635,
      "Ġmechan": 3636,
      "Ġvio": 3637,
      "Ġunt": 3638,
      "Ġflour": 3639,
      "Ġdriven": 3640,
      "Ġdrivers": 3641,
      "Ġsuccess": 3642,
      "Ġcomposed": 3643,
      "Ġhousework": 3644,
      "Ġhandle": 3645,
      "Ġoffer": 3646,
      "Ġgloves": 3647,
      "Ġquiet": 3648,
      "Ġcute": 3649,
      "Ġsnack": 3650,
      "atory": 3651,
      "Ġattack": 3652,
      "Ġblackboard": 3653,
      "Ġcontact": 3654,
      "Ġfalling": 3655,
      "Ġsingle": 3656,
      "Ġcement": 3657,
      "Ġserve": 3658,
      "Ġcrash": 3659,
      "ĠClaus": 3660,
      "Ġpassport": 3661,
      "Ġpowerful": 3662,
      "Ġbridge": 3663,
      "Ġwaiter": 3664,
      "Ġlocated": 3665,
      "Ġextre": 3666,
      "Ġvacc": 3667,
      "Ġvolume": 3668,
      "Ġentering": 3669,
      "Ġcigarettes": 3670,
      "Ġreview": 3671,
      "Ġrevolves": 3672,
      "Ġpandas": 3673,
      "Ġexplos": 3674,
      "Ġsilver": 3675,
      "Ġprivate": 3676,
      "Ġwatermelon": 3677,
      "Ġbatteries": 3678,
      "Ġpumpkin": 3679,
      "Ġmistakes": 3680,
      "Ġillegal": 3681,
      "ĠPandas": 3682,
      "Ġseconds": 3683,
      "Ġtortoise": 3684,
      "ĠDiamonds": 3685,
      "ervous": 3686,
      "Ġchurch": 3687,
      "Ġfactory": 3688,
      "ĠPresident": 3689,
      "Ġmushrooms": 3690,
      "Ġhusb": 3691,
      "\",": 3692,
      "TER": 3693,
      "fu": 3694,
      "fall": 3695,
      "father": 3696,
      "min": 3697,
      "ox": 3698,
      "Ġcase": 3699,
      "ann": 3700,
      "Ġwest": 3701,
      "Ġbur": 3702,
      "Ġblender": 3703,
      "Ġfed": 3704,
      "Ġfishes": 3705,
      "Ġmill": 3706,
      "Ġmons": 3707,
      "orge": 3708,
      "ene": 3709,
      "enagers": 3710,
      "alia": 3711,
      "Ġnervous": 3712,
      "Ġlun": 3713,
      "Ġlower": 3714,
      "ĠTim": 3715,
      "ĠTaking": 3716,
      "Ġheating": 3717,
      "aters": 3718,
      "Ġsoy": 3719,
      "Ġchat": 3720,
      "feren": 3721,
      "Ġcondu": 3722,
      "Ġworse": 3723,
      "ardro": 3724,
      "Ġjoke": 3725,
      "que": 3726,
      "Ġunh": 3727,
      "Ġfridges": 3728,
      "Ġgrill": 3729,
      "Ġbutt": 3730,
      "Ġmusc": 3731,
      "Ġorange": 3732,
      "Ġcooker": 3733,
      "Ġriding": 3734,
      "Ġknows": 3735,
      "llo": 3736,
      "ĠOur": 3737,
      "Ġcheat": 3738,
      "ailable": 3739,
      "Ġschools": 3740,
      "Ġraining": 3741,
      "Ġseawater": 3742,
      "Ġraw": 3743,
      "Ġbeds": 3744,
      "Ġparties": 3745,
      "Ġsteering": 3746,
      "Ġambul": 3747,
      "Ġsalmon": 3748,
      "Ġshops": 3749,
      "Ġobs": 3750,
      "Ġdarkness": 3751,
      "Ġserious": 3752,
      "ĠClouds": 3753,
      "Ġperfect": 3754,
      "Ġfreely": 3755,
      "Ġprovides": 3756,
      "ĠBees": 3757,
      "Ġsubject": 3758,
      "ĠSpoon": 3759,
      "ĠSunday": 3760,
      "Ġsatisf": 3761,
      "Ġsongs": 3762,
      "nthes": 3763,
      "Ġpresent": 3764,
      "Ġregul": 3765,
      "Ġcrime": 3766,
      "Ġpunished": 3767,
      "ĠSea": 3768,
      "Ġmelts": 3769,
      "Ġlipstick": 3770,
      "strich": 3771,
      "Ġdollars": 3772,
      "Ġrarely": 3773,
      "Ġpuddle": 3774,
      "Ġwatermelons": 3775,
      "Ġcriminal": 3776,
      "Ġencourag": 3777,
      "Ġcamer": 3778,
      "Ġbehav": 3779,
      "ĠWatching": 3780,
      "Ġdegrees": 3781,
      "Ġtravelling": 3782,
      "Ġugly": 3783,
      "Ġstrength": 3784,
      "Ġsecret": 3785,
      "Ġmotorcycle": 3786,
      "ĠSwimming": 3787,
      "ĠAustralia": 3788,
      "Ġextreme": 3789,
      "Ġhusband": 3790,
      "IC": 3791,
      "ex": 3792,
      "ech": 3793,
      "ring": 3794,
      "yard": 3795,
      "iny": 3796,
      "ints": 3797,
      "Ġcycle": 3798,
      "Ġwake": 3799,
      "Ġwound": 3800,
      "Ġbikes": 3801,
      "Ġbomb": 3802,
      "Ġfoll": 3803,
      "Ġpack": 3804,
      "Ġprim": 3805,
      "Ġhid": 3806,
      "arter": 3807,
      "Ġinc": 3808,
      "Ġinfl": 3809,
      "Ġnuclear": 3810,
      "Ġlos": 3811,
      "ĠToo": 3812,
      "ĠTra": 3813,
      "Ġeight": 3814,
      "used": 3815,
      "ilities": 3816,
      "road": 3817,
      "Ġlie": 3818,
      "Ġstorm": 3819,
      "ĠST": 3820,
      "ĠSummer": 3821,
      "Ġyet": 3822,
      "una": 3823,
      "adays": 3824,
      "uts": 3825,
      "ĠPole": 3826,
      "ĠCD": 3827,
      "ĠMin": 3828,
      "ĠMotor": 3829,
      "Ġcards": 3830,
      "ĠWine": 3831,
      "ĠWashing": 3832,
      "Ġchance": 3833,
      "Ġrings": 3834,
      "Ġrats": 3835,
      "ceed": 3836,
      "Ġkangar": 3837,
      "Ġspent": 3838,
      "ape": 3839,
      "Ġaliens": 3840,
      "ĠSheep": 3841,
      "Ġje": 3842,
      "Ġrose": 3843,
      "Ġsunb": 3844,
      "Ġflu": 3845,
      "Ġflow": 3846,
      "Ġskills": 3847,
      "Ġworked": 3848,
      "estri": 3849,
      "Ġsuff": 3850,
      "ĠGerm": 3851,
      "Ġcooks": 3852,
      "ĠChop": 3853,
      "ending": 3854,
      "aged": 3855,
      "ĠNob": 3856,
      "Ġappoint": 3857,
      "Ġabroad": 3858,
      "actus": 3859,
      "Ġclasses": 3860,
      "Ġcontainer": 3861,
      "Ġsnakes": 3862,
      "Ġspeech": 3863,
      "Ġamount": 3864,
      "Ġhunger": 3865,
      "Ġsalary": 3866,
      "Ġrelative": 3867,
      "Ġolder": 3868,
      "cream": 3869,
      "Ġunderwater": 3870,
      "ergent": 3871,
      "Ġentire": 3872,
      "Ġaccom": 3873,
      "Ġsits": 3874,
      "Ġtalking": 3875,
      "Ġcrops": 3876,
      "Ġfinished": 3877,
      "Ġowner": 3878,
      "ĠTooth": 3879,
      "Ġbowling": 3880,
      "Ġtowels": 3881,
      "Ġrepair": 3882,
      "Ġavailable": 3883,
      "Ġpresident": 3884,
      "Ġconditioning": 3885,
      "Ġassign": 3886,
      "Ġborrow": 3887,
      "ĠBricks": 3888,
      "Ġreceive": 3889,
      "Ġcelebrate": 3890,
      "urian": 3891,
      "Ġwiped": 3892,
      "Ġquestion": 3893,
      "Ġconnected": 3894,
      "Ġfreezer": 3895,
      "Ġcourt": 3896,
      "ĠAsia": 3897,
      "Ġinterv": 3898,
      "ĠSalt": 3899,
      "Ġfield": 3900,
      "Ġitems": 3901,
      "ĠButter": 3902,
      "Ġtelephone": 3903,
      "Ġpuppy": 3904,
      "Ġpollution": 3905,
      "nivores": 3906,
      "Ġprofessional": 3907,
      "ĠMusic": 3908,
      "Ġequipment": 3909,
      "Ġuntil": 3910,
      "Ġextremely": 3911,
      "ĠNobody": 3912,
      "IR": 3913,
      "VE": 3914,
      "che": 3915,
      "fly": 3916,
      "hy": 3917,
      "iving": 3918,
      "lands": 3919,
      "rate": 3920,
      "rings": 3921,
      "uum": 3922,
      "ĠZ": 3923,
      "Ġtask": 3924,
      "inate": 3925,
      "inary": 3926,
      "Ġcoup": 3927,
      "Ġcraw": 3928,
      "Ġcried": 3929,
      "Ġcours": 3930,
      "Ġcases": 3931,
      "ret": 3932,
      "Ġwra": 3933,
      "isc": 3934,
      "Ġpred": 3935,
      "Ġtoys": 3936,
      "lets": 3937,
      "Ġmiles": 3938,
      "Ġhor": 3939,
      "Ġhum": 3940,
      "Ġdust": 3941,
      "Ġdiv": 3942,
      "Ġdumpl": 3943,
      "itive": 3944,
      "itation": 3945,
      "itiz": 3946,
      "edi": 3947,
      "Ġlat": 3948,
      "Ġheels": 3949,
      "Ġstaying": 3950,
      "ĠSo": 3951,
      "ĠSat": 3952,
      "ĠHel": 3953,
      "ades": 3954,
      "rib": 3955,
      "ĠPill": 3956,
      "Ġplates": 3957,
      "Ġplaced": 3958,
      "ĠCol": 3959,
      "ĠCry": 3960,
      "Ġweak": 3961,
      "Ġwaterfall": 3962,
      "ĠWall": 3963,
      "ĠBuses": 3964,
      "Ġsex": 3965,
      "Ġlevel": 3966,
      "Ġtext": 3967,
      "apor": 3968,
      "Ġalong": 3969,
      "Ġalarm": 3970,
      "ĠDay": 3971,
      "ĠFestival": 3972,
      "Ġbecomes": 3973,
      "ĠEAT": 3974,
      "Ġfeeds": 3975,
      "Ġbloss": 3976,
      "Ġskates": 3977,
      "Ġoutd": 3978,
      "ĠLily": 3979,
      "Ġdev": 3980,
      "Ġdeal": 3981,
      "Ġaircraft": 3982,
      "Ġtrunk": 3983,
      "Ġtractor": 3984,
      "ĠRe": 3985,
      "Ġappears": 3986,
      "althy": 3987,
      "Ġhelmet": 3988,
      "Ġcheer": 3989,
      "Ġscared": 3990,
      "ighters": 3991,
      "anks": 3992,
      "Ġglue": 3993,
      "Ġkeeping": 3994,
      "Ġvet": 3995,
      "Ġquilt": 3996,
      "Ġsnacks": 3997,
      "Ġeasier": 3998,
      "Ġhospitals": 3999,
      "Ġboyfriend": 4000,
      "Ġresear": 4001,
      "Ġrivers": 4002,
      "Ġbathe": 4003,
      "Ġjumping": 4004,
      "Ġ20": 4005,
      "Ġbrighter": 4006,
      "Ġlessons": 4007,
      "Ġairplanes": 4008,
      "Ġentertain": 4009,
      "Ġdiseases": 4010,
      "ĠUni": 4011,
      "Ġlawy": 4012,
      "Ġbutterflies": 4013,
      "Ġmaintain": 4014,
      "ĠPenc": 4015,
      "Ġdanced": 4016,
      "Ġbarked": 4017,
      "ĠBlack": 4018,
      "Ġautom": 4019,
      "Ġbleed": 4020,
      "Ġcircle": 4021,
      "Ġdamage": 4022,
      "Ġcommunicate": 4023,
      "Ġproperty": 4024,
      "Ġoccur": 4025,
      "ĠJapanese": 4026,
      "Ġholidays": 4027,
      "ĠChicken": 4028,
      "Ġbegin": 4029,
      "Ġcriminals": 4030,
      "Ġencourage": 4031,
      "Ġdolphins": 4032,
      "Ġstorage": 4033,
      "ING": 4034,
      "Ġfrequ": 4035,
      "ĠElectric": 4036,
      "Ġapartment": 4037,
      "Ġcomedy": 4038,
      "Ġrecycled": 4039,
      "Ġgravity": 4040,
      "Ġmodel": 4041,
      "ĠRefriger": 4042,
      "Ġnutrition": 4043,
      "Ġpulled": 4044,
      "ĠRestaur": 4045,
      "Ġatmosphere": 4046,
      "ĠHospitals": 4047,
      "minton": 4048,
      "Ġregulations": 4049,
      "Ġcourses": 4050,
      "..": 4051,
      "AR": 4052,
      "OM": 4053,
      "ckets": 4054,
      "dom": 4055,
      "eakers": 4056,
      "gans": 4057,
      "ibit": 4058,
      "oys": 4059,
      "ram": 4060,
      "rise": 4061,
      "ti": 4062,
      "ynthes": 4063,
      "Ġ8": 4064,
      "Ġturtles": 4065,
      "het": 4066,
      "Ġsense": 4067,
      "Ġband": 4068,
      "Ġfrag": 4069,
      "ley": 4070,
      "Ġmap": 4071,
      "atic": 4072,
      "Ġhal": 4073,
      "Ġdate": 4074,
      "Ġduck": 4075,
      "Ġisland": 4076,
      "orous": 4077,
      "Ġined": 4078,
      "ital": 4079,
      "alax": 4080,
      "Ġnet": 4081,
      "Ġnoses": 4082,
      "Ġnumbers": 4083,
      "Ġostrich": 4084,
      "Ġgri": 4085,
      "Ġgum": 4086,
      "ilitary": 4087,
      "Ġheight": 4088,
      "Ġonce": 4089,
      "rogs": 4090,
      "Ġthir": 4091,
      "ĠAN": 4092,
      "Ġstage": 4093,
      "Ġstole": 4094,
      "ĠHair": 4095,
      "ĠCut": 4096,
      "ĠMirr": 4097,
      "Ġsoda": 4098,
      "Ġrude": 4099,
      "Ġsec": 4100,
      "Ġleop": 4101,
      "ĠYork": 4102,
      "Ġshed": 4103,
      "Ġfoods": 4104,
      "ello": 4105,
      "Ġmeas": 4106,
      "Ġvoice": 4107,
      "Ġsword": 4108,
      "alking": 4109,
      "Ġfries": 4110,
      "Ġtherefore": 4111,
      "ender": 4112,
      "Ġcompan": 4113,
      "ĠStaying": 4114,
      "Ġteaching": 4115,
      "ube": 4116,
      "ized": 4117,
      "Ġclassmates": 4118,
      "planes": 4119,
      "Ġlaid": 4120,
      "Ġcuts": 4121,
      "Ġanyone": 4122,
      "Ġbadminton": 4123,
      "ricket": 4124,
      "Ġmonit": 4125,
      "amps": 4126,
      "ampoo": 4127,
      "alen": 4128,
      "Ġheads": 4129,
      "Ġresour": 4130,
      "Ġlearned": 4131,
      "Ġprotection": 4132,
      "Ġbattle": 4133,
      "Ġremove": 4134,
      "Ġrequired": 4135,
      "Ġpassed": 4136,
      "Ġfreeze": 4137,
      "Ġbelongs": 4138,
      "ĠTelevision": 4139,
      "Ġflex": 4140,
      "Ġnowadays": 4141,
      "Ġclimbed": 4142,
      "ĠAirplanes": 4143,
      "Ġnaturally": 4144,
      "Ġlanguages": 4145,
      "ĠSnow": 4146,
      "Ġmainly": 4147,
      "Ġthrowing": 4148,
      "Ġhammer": 4149,
      "rapes": 4150,
      "Ġmenu": 4151,
      "Ġprepared": 4152,
      "Ġnutri": 4153,
      "Ġwatches": 4154,
      "Ġprinted": 4155,
      "Ġeducate": 4156,
      "Ġwipe": 4157,
      "Ġgiving": 4158,
      "ĠUSA": 4159,
      "Ġcontinent": 4160,
      "Ġbenefits": 4161,
      "Ġoppos": 4162,
      "ĠFridge": 4163,
      "Ġcrowded": 4164,
      "Ġviolin": 4165,
      "Ġphotosynthes": 4166,
      "Ġdolphin": 4167,
      "Ġcamping": 4168,
      "Ġculture": 4169,
      "Ġelse": 4170,
      "Ġannoy": 4171,
      "ĠCooking": 4172,
      "Ġfeathers": 4173,
      "ĠGoing": 4174,
      "Ġbarbecue": 4175,
      "Ġposition": 4176,
      "Ġhamburger": 4177,
      "Ġlady": 4178,
      "Ġcreatures": 4179,
      "Ġstrawber": 4180,
      "Ġspecies": 4181,
      "ĠTrains": 4182,
      "ĠCaesar": 4183,
      "Ġfatigue": 4184,
      "Ġencouraged": 4185,
      "Ġinterview": 4186,
      "Ġinedible": 4187,
      "'d": 4188,
      "VER": 4189,
      "food": 4190,
      "fire": 4191,
      "hab": 4192,
      "mar": 4193,
      "ocious": 4194,
      "ued": 4195,
      "uous": 4196,
      "xide": 4197,
      "yl": 4198,
      "Ġtire": 4199,
      "Ġsouth": 4200,
      "Ġcer": 4201,
      "Ġwardro": 4202,
      "onna": 4203,
      "Ġfra": 4204,
      "Ġfart": 4205,
      "Ġpear": 4206,
      "Ġplease": 4207,
      "Ġmug": 4208,
      "Ġmult": 4209,
      "Ġdio": 4210,
      "ara": 4211,
      "aries": 4212,
      "ened": 4213,
      "enic": 4214,
      "itch": 4215,
      "ittle": 4216,
      "ashed": 4217,
      "Ġoct": 4218,
      "Ġants": 4219,
      "Ġheard": 4220,
      "Ġhello": 4221,
      "acts": 4222,
      "Ġstuff": 4223,
      "ĠSl": 4224,
      "ĠSam": 4225,
      "ĠSocks": 4226,
      "uto": 4227,
      "olve": 4228,
      "Ġredu": 4229,
      "Ġshampoo": 4230,
      "ĠMosquit": 4231,
      "Ġchips": 4232,
      "ĠBot": 4233,
      "Ġleaf": 4234,
      "Ġspl": 4235,
      "Ġexcessive": 4236,
      "Ġcoming": 4237,
      "Ġherself": 4238,
      "Ġworth": 4239,
      "Ġjog": 4240,
      "icked": 4241,
      "Ġroses": 4242,
      "ĠFarm": 4243,
      "Ġsmile": 4244,
      "ĠEy": 4245,
      "Ġvase": 4246,
      "Ġunable": 4247,
      "Ġfried": 4248,
      "ĠLem": 4249,
      "estic": 4250,
      "ĠGl": 4251,
      "ĠGener": 4252,
      "Ġprom": 4253,
      "ĠRub": 4254,
      "ĠNorth": 4255,
      "ĠON": 4256,
      "Ġexpired": 4257,
      "Ġwrist": 4258,
      "Ġwritten": 4259,
      "emeter": 4260,
      "Ġdeserts": 4261,
      "Ġadult": 4262,
      "Ġrooms": 4263,
      "ugg": 4264,
      "Ġsalad": 4265,
      "Ġresult": 4266,
      "ĠKids": 4267,
      "Ġobey": 4268,
      "Ġentr": 4269,
      "Ġroads": 4270,
      "Ġenjoys": 4271,
      "Ġlistened": 4272,
      "Ġpassen": 4273,
      "Ġbelieve": 4274,
      "Ġcells": 4275,
      "Ġ12": 4276,
      "Ġvacuum": 4277,
      "appy": 4278,
      "Ġwarmer": 4279,
      "Ġtomorrow": 4280,
      "Ġumbrellas": 4281,
      "iolog": 4282,
      "Ġexciting": 4283,
      "Ġvideos": 4284,
      "Ġrubb": 4285,
      "Ġopera": 4286,
      "ĠTiger": 4287,
      "ĠGrass": 4288,
      "Ġinvited": 4289,
      "ĠFrance": 4290,
      "Ġbleach": 4291,
      "Ġgifts": 4292,
      "Ġlifted": 4293,
      "Ġdeterm": 4294,
      "Ġshells": 4295,
      "Ġsimple": 4296,
      "Ġbeneficial": 4297,
      "Ġpudding": 4298,
      "Ġbattery": 4299,
      "Ġfields": 4300,
      "ĠCheese": 4301,
      "Ġimmedi": 4302,
      "Ġunlocked": 4303,
      "Ġhundred": 4304,
      "Ġingredient": 4305,
      "Ġmissed": 4306,
      "ĠParents": 4307,
      "ĠWatermelon": 4308,
      "Ġharves": 4309,
      "Ġpretty": 4310,
      "Ġconduct": 4311,
      "Ġmuscles": 4312,
      "Ġbehavior": 4313,
      "ĠGermany": 4314,
      "Ġfragile": 4315,
      "alend": 4316,
      "Ġflexible": 4317,
      "Ġcertain": 4318,
      "Ġwardrobe": 4319,
      "onnaise": 4320,
      "Ġfragr": 4321,
      "Ġdioxide": 4322,
      "ĠFarmers": 4323,
      "OT": 4324,
      "dress": 4325,
      "kn": 4326,
      "mic": 4327,
      "pose": 4328,
      "riting": 4329,
      "uation": 4330,
      "uction": 4331,
      "val": 4332,
      "ws": 4333,
      "Ġiced": 4334,
      "Ġtie": 4335,
      "Ġtend": 4336,
      "Ġtub": 4337,
      "Ġach": 4338,
      "Ġcured": 4339,
      "erals": 4340,
      "erget": 4341,
      "Ġfactor": 4342,
      "Ġpil": 4343,
      "Ġpour": 4344,
      "Ġtoast": 4345,
      "Ġmood": 4346,
      "Ġhost": 4347,
      "esity": 4348,
      "ords": 4349,
      "itt": 4350,
      "Ġnar": 4351,
      "Ġnest": 4352,
      "Ġlying": 4353,
      "Ġcans": 4354,
      "Ġcandies": 4355,
      "ĠTurtles": 4356,
      "ushes": 4357,
      "opes": 4358,
      "ĠIS": 4359,
      "Ġstap": 4360,
      "ĠSpe": 4361,
      "ĠSouth": 4362,
      "ĠHot": 4363,
      "ĠHaving": 4364,
      "Ġhams": 4365,
      "Ġrelease": 4366,
      "Ġwithd": 4367,
      "Ġplug": 4368,
      "hern": 4369,
      "ĠMom": 4370,
      "ĠMike": 4371,
      "Ġcarp": 4372,
      "ulf": 4373,
      "ĠBu": 4374,
      "Ġsevere": 4375,
      "ounds": 4376,
      "Ġalmost": 4377,
      "Ġherb": 4378,
      "Ġenerget": 4379,
      "ivered": 4380,
      "ĠFrogs": 4381,
      "Ġsmelly": 4382,
      "rows": 4383,
      "Ġsunrise": 4384,
      "Ġdaytime": 4385,
      "ĠLittle": 4386,
      "ĠGlo": 4387,
      "Ġsale": 4388,
      "Ġlobs": 4389,
      "mergen": 4390,
      "Ġoffic": 4391,
      "Ġwalks": 4392,
      "Ġteaches": 4393,
      "Ġhelped": 4394,
      "anges": 4395,
      "Ġque": 4396,
      "Ġdisp": 4397,
      "Ġwindy": 4398,
      "play": 4399,
      "Ġsneakers": 4400,
      "Ġmusician": 4401,
      "Ġlooking": 4402,
      "ercury": 4403,
      "Ġsalon": 4404,
      "Ġcalories": 4405,
      "Ġboxes": 4406,
      "Ġsweep": 4407,
      "Ġbackyard": 4408,
      "Ġprotects": 4409,
      "Ġmeters": 4410,
      "Ġactors": 4411,
      "ocus": 4412,
      "Ġletters": 4413,
      "Ġfarmer": 4414,
      "Ġlistening": 4415,
      "Ġpopul": 4416,
      "Ġfilms": 4417,
      "Ġ200": 4418,
      "Ġstudying": 4419,
      "Ġcarrying": 4420,
      "Ġindust": 4421,
      "Ġwaiting": 4422,
      "Ġillum": 4423,
      "Ġfewer": 4424,
      "Ġprescri": 4425,
      "Ġmagn": 4426,
      "Ġstanding": 4427,
      "Ġmammal": 4428,
      "Ġhappened": 4429,
      "ĠFrank": 4430,
      "Ġdamaged": 4431,
      "Ġoccup": 4432,
      "Ġfreezing": 4433,
      "Ġcourse": 4434,
      "Ġbalance": 4435,
      "Ġlemonade": 4436,
      "Ġferocious": 4437,
      "Ġbegins": 4438,
      "Ġsteps": 4439,
      "Ġtape": 4440,
      "ĠAfrica": 4441,
      "Ġscarf": 4442,
      "Ġpedestri": 4443,
      "Ġdiesel": 4444,
      "Ġroller": 4445,
      "Ġsubstance": 4446,
      "ĠMov": 4447,
      "Ġutensils": 4448,
      "ĠProgr": 4449,
      "Ġsunscreen": 4450,
      "ĠGeorge": 4451,
      "Ġcosts": 4452,
      "ference": 4453,
      "Ġunhappy": 4454,
      "Ġambulance": 4455,
      "ĠTraffic": 4456,
      "Ġappointment": 4457,
      "alaxy": 4458,
      "ĠGenerally": 4459,
      "alendar": 4460,
      "Ġenergetic": 4461,
      "EL": 4462,
      "eves": 4463,
      "hone": 4464,
      "iber": 4465,
      "ran": 4466,
      "wear": 4467,
      "Ġton": 4468,
      "Ġtiss": 4469,
      "Ġtried": 4470,
      "Ġaunt": 4471,
      "ino": 4472,
      "Ġsym": 4473,
      "Ġcorn": 4474,
      "Ġcitiz": 4475,
      "Ġcemeter": 4476,
      "reds": 4477,
      "eros": 4478,
      "Ġbacteria": 4479,
      "onal": 4480,
      "Ġfair": 4481,
      "Ġple": 4482,
      "Ġpal": 4483,
      "Ġpine": 4484,
      "Ġmark": 4485,
      "Ġmask": 4486,
      "ither": 4487,
      "itions": 4488,
      "itude": 4489,
      "Ġlack": 4490,
      "Ġgent": 4491,
      "Ġareas": 4492,
      "oping": 4493,
      "Ġhere": 4494,
      "Ġforks": 4495,
      "Ġsty": 4496,
      "ĠSing": 4497,
      "ĠSit": 4498,
      "ĠHA": 4499,
      "Ġdoc": 4500,
      "Ġrect": 4501,
      "Ġwithin": 4502,
      "ĠPar": 4503,
      "chn": 4504,
      "ĠMc": 4505,
      "ĠMay": 4506,
      "ĠMice": 4507,
      "illing": 4508,
      "Ġnears": 4509,
      "Ġrat": 4510,
      "ĠBase": 4511,
      "oung": 4512,
      "Ġspider": 4513,
      "Ġteenagers": 4514,
      "ĠYoung": 4515,
      "Ġasks": 4516,
      "Ġboil": 4517,
      "Ġtreasure": 4518,
      "ieves": 4519,
      "Ġunhe": 4520,
      "Ġflav": 4521,
      "Ġskill": 4522,
      "Ġworkers": 4523,
      "Ġorig": 4524,
      "ĠRain": 4525,
      "athon": 4526,
      "Ġbuys": 4527,
      "ĠOb": 4528,
      "Ġpersonal": 4529,
      "Ġallow": 4530,
      "Ġscore": 4531,
      "Ġscored": 4532,
      "Ġquen": 4533,
      "Ġrainbow": 4534,
      "Ġseafood": 4535,
      "Ġlawn": 4536,
      "Ġpolar": 4537,
      "cials": 4538,
      "orms": 4539,
      "Ġpartic": 4540,
      "Ġtraining": 4541,
      "ĠPlay": 4542,
      "Ġrefres": 4543,
      "Ġopening": 4544,
      "Ġzebras": 4545,
      "Ġpee": 4546,
      "ission": 4547,
      "Ġobesity": 4548,
      "Ġjobs": 4549,
      "Ġliquor": 4550,
      "Ġpieces": 4551,
      "Ġcharacter": 4552,
      "Ġwooden": 4553,
      "conom": 4554,
      "Ġwomen": 4555,
      "ewel": 4556,
      "Ġpurse": 4557,
      "Ġpurpose": 4558,
      "ĠFlies": 4559,
      "Ġclimbing": 4560,
      "clock": 4561,
      "ĠCoke": 4562,
      "Ġregular": 4563,
      "Ġstomachache": 4564,
      "Ġweekends": 4565,
      "rapher": 4566,
      "Ġoperate": 4567,
      "load": 4568,
      "Ġpressed": 4569,
      "Ġsleeves": 4570,
      "Ġgiven": 4571,
      "Ġhydr": 4572,
      "Ġcontinue": 4573,
      "Ġsilly": 4574,
      "Ġpenguin": 4575,
      "Ġeras": 4576,
      "Ġvillage": 4577,
      "Ġseldom": 4578,
      "Ġthoughts": 4579,
      "Ġhundreds": 4580,
      "Ġingredients": 4581,
      "Ġsuspect": 4582,
      "Ġexhaus": 4583,
      "Ġadvant": 4584,
      "Ġthousands": 4585,
      "Ġhippo": 4586,
      "ĠPaint": 4587,
      "Ġradiation": 4588,
      "ĠVegetables": 4589,
      "Ġarrived": 4590,
      "ĠWinter": 4591,
      "ĠChopsticks": 4592,
      "Ġdumplings": 4593,
      "ĠPillows": 4594,
      "Ġentertainment": 4595,
      "Ġlawyer": 4596,
      "ĠPencils": 4597,
      "Ġleopard": 4598,
      "Ġnutrients": 4599,
      "Ġopposite": 4600,
      "Ġimmediately": 4601,
      "Ġherbiv": 4602,
      "ĠGloves": 4603,
      "Ġgentle": 4604,
      "Ġrectang": 4605,
      "Ġnearsighted": 4606,
      "ĠBaseball": 4607,
      "Donal": 4608,
      "EET": 4609,
      "KS": 4610,
      "by": 4611,
      "dd": 4612,
      "dings": 4613,
      "ikin": 4614,
      "nam": 4615,
      "nger": 4616,
      "pill": 4617,
      "rus": 4618,
      "inal": 4619,
      "Ġcrocod": 4620,
      "Ġwaves": 4621,
      "erry": 4622,
      "Ġbull": 4623,
      "Ġbored": 4624,
      "Ġbisc": 4625,
      "Ġfans": 4626,
      "Ġfrench": 4627,
      "Ġfox": 4628,
      "Ġtouc": 4629,
      "atul": 4630,
      "Ġdive": 4631,
      "ording": 4632,
      "ala": 4633,
      "Ġlu": 4634,
      "Ġever": 4635,
      "oming": 4636,
      "opping": 4637,
      "etah": 4638,
      "Ġnote": 4639,
      "Ġthreat": 4640,
      "ĠAmy": 4641,
      "ĠSil": 4642,
      "ĠSwe": 4643,
      "ĠSod": 4644,
      "ĠSept": 4645,
      "ĠHipp": 4646,
      "ĠHouses": 4647,
      "ĠHaw": 4648,
      "iment": 4649,
      "Ġyounger": 4650,
      "ellent": 4651,
      "Ġret": 4652,
      "uric": 4653,
      "urity": 4654,
      "ĠPat": 4655,
      "aming": 4656,
      "rav": 4657,
      "aterpill": 4658,
      "ĠCe": 4659,
      "ĠCAN": 4660,
      "Ġeatable": 4661,
      "ĠMY": 4662,
      "ĠMountain": 4663,
      "Ġcarrots": 4664,
      "Ġcarnivores": 4665,
      "Ġsof": 4666,
      "ably": 4667,
      "ĠWar": 4668,
      "ĠWolves": 4669,
      "ĠWalking": 4670,
      "Ġchann": 4671,
      "ĠBat": 4672,
      "Ġfrying": 4673,
      "Ġsear": 4674,
      "Ġkeros": 4675,
      "Ġspots": 4676,
      "Ġexists": 4677,
      "Ġconstr": 4678,
      "Ġcommer": 4679,
      "Ġputting": 4680,
      "Ġsmarter": 4681,
      "Ġview": 4682,
      "Ġblades": 4683,
      "Ġuns": 4684,
      "Ġproject": 4685,
      "resent": 4686,
      "Ġproud": 4687,
      "ĠChar": 4688,
      "ĠChairs": 4689,
      "Ġlotion": 4690,
      "ĠNe": 4691,
      "Ġscores": 4692,
      "Ġgrew": 4693,
      "Ġturning": 4694,
      "Ġhomeless": 4695,
      "Ġmayonnaise": 4696,
      "Ġquite": 4697,
      "Ġdiss": 4698,
      "Ġdisaster": 4699,
      "Ġdisapp": 4700,
      "Ġraised": 4701,
      "Ġlazy": 4702,
      "Ġprey": 4703,
      "ĠSomeone": 4704,
      "ĠPluto": 4705,
      "Ġeyesight": 4706,
      "Ġbarn": 4707,
      "Ġunderground": 4708,
      "Ġsmoked": 4709,
      "Ġlitter": 4710,
      "Ġselling": 4711,
      "Ġpattern": 4712,
      "Ġemail": 4713,
      "lence": 4714,
      "Ġcharged": 4715,
      "beat": 4716,
      "Ġstayed": 4717,
      "Ġsuper": 4718,
      "Ġsoldier": 4719,
      "Ġzoos": 4720,
      "ĠSports": 4721,
      "Ġsadness": 4722,
      "Ġguide": 4723,
      "Ġdresses": 4724,
      "Ġindul": 4725,
      "shirt": 4726,
      "Ġshelter": 4727,
      "Ġvisited": 4728,
      "ĠAlice": 4729,
      "Ġcrossed": 4730,
      "Ġsuppl": 4731,
      "Ġsupport": 4732,
      "guins": 4733,
      "Ġkilog": 4734,
      "Ġexcellent": 4735,
      "Ġnuts": 4736,
      "Ġlegal": 4737,
      "Ġheartbeat": 4738,
      "ĠPenguins": 4739,
      "ĠBlue": 4740,
      "Ġblew": 4741,
      "Ġthinks": 4742,
      "Ġdetergent": 4743,
      "ĠBoats": 4744,
      "ĠPolice": 4745,
      "eeze": 4746,
      "Ġactivities": 4747,
      "Ġdiamonds": 4748,
      "Ġdragons": 4749,
      "Ġferment": 4750,
      "Ġexperien": 4751,
      "Ġself": 4752,
      "Ġwidely": 4753,
      "Ġfolded": 4754,
      "ĠScissors": 4755,
      "Ġreplaced": 4756,
      "Ġrobber": 4757,
      "Ġtropical": 4758,
      "Ġidea": 4759,
      "Ġcereal": 4760,
      "Ġincluding": 4761,
      "aii": 4762,
      "Ġlungs": 4763,
      "ĠSTON": 4764,
      "Ġwrapped": 4765,
      "ĠSaturn": 4766,
      "ĠCrying": 4767,
      "Ġresearch": 4768,
      "Ġsecurity": 4769,
      "Ġcompanies": 4770,
      "uggage": 4771,
      "Ġrubbish": 4772,
      "Ġfragrance": 4773,
      "ulfuric": 4774,
      "Ġlobster": 4775,
      "mergency": 4776,
      "ĠProgrammers": 4777,
      "Ġtissue": 4778,
      "ĠMcDonal": 4779,
      "ewelry": 4780,
      "ikini": 4781,
      "ĠSoda": 4782,
      "ĠSeptember": 4783,
      "ĠHawaii": 4784,
      "Ġkerosene": 4785,
      "UT": 4786,
      "come": 4787,
      "dinary": 4788,
      "iety": 4789,
      "lier": 4790,
      "sy": 4791,
      "uable": 4792,
      "vil": 4793,
      "vens": 4794,
      "Ġted": 4795,
      "ining": 4796,
      "Ġsure": 4797,
      "Ġcactus": 4798,
      "Ġcalendar": 4799,
      "Ġther": 4800,
      "Ġwoke": 4801,
      "erve": 4802,
      "onge": 4803,
      "Ġfestival": 4804,
      "Ġtour": 4805,
      "Ġmum": 4806,
      "Ġdurian": 4807,
      "ouches": 4808,
      "arge": 4809,
      "itic": 4810,
      "Ġnaked": 4811,
      "Ġnamed": 4812,
      "Ġluc": 4813,
      "Ġluggage": 4814,
      "Ġge": 4815,
      "Ġgh": 4816,
      "Ġgall": 4817,
      "Ġgain": 4818,
      "Ġgalaxy": 4819,
      "ĠTw": 4820,
      "Ġeag": 4821,
      "Ġbeverage": 4822,
      "roll": 4823,
      "Ġnoteb": 4824,
      "Ġforce": 4825,
      "acity": 4826,
      "acters": 4827,
      "Ġthrown": 4828,
      "ĠAd": 4829,
      "Ġstain": 4830,
      "ĠSchool": 4831,
      "ĠHands": 4832,
      "ĠHallow": 4833,
      "tery": 4834,
      "ĠPian": 4835,
      "amas": 4836,
      "idence": 4837,
      "ĠCH": 4838,
      "ĠCup": 4839,
      "ĠCouches": 4840,
      "uments": 4841,
      "ĠMar": 4842,
      "ĠMount": 4843,
      "ĠWind": 4844,
      "Ġrang": 4845,
      "iff": 4846,
      "aker": 4847,
      "Ġclub": 4848,
      "Ġselect": 4849,
      "Ġlem": 4850,
      "Ġleng": 4851,
      "Ġspot": 4852,
      "Ġsponge": 4853,
      "Ġtechn": 4854,
      "ĠDis": 4855,
      "Ġjour": 4856,
      "elling": 4857,
      "ĠFishes": 4858,
      "ĠEve": 4859,
      "Ġvan": 4860,
      "Ġflash": 4861,
      "Ġupd": 4862,
      "Ġgrade": 4863,
      "Ġgroup": 4864,
      "ĠGun": 4865,
      "Ġbreast": 4866,
      "Ġcookie": 4867,
      "ĠJames": 4868,
      "ĠJerry": 4869,
      "Ġpharm": 4870,
      "aghet": 4871,
      "Ġloy": 4872,
      "Ġcocon": 4873,
      "ĠStars": 4874,
      "Ġappet": 4875,
      "Ġapply": 4876,
      "Ġbaskets": 4877,
      "Ġschoolbag": 4878,
      "ubes": 4879,
      "aved": 4880,
      "Ġearrings": 4881,
      "forest": 4882,
      "Ġreads": 4883,
      "Ġready": 4884,
      "Ġopin": 4885,
      "Ġdescri": 4886,
      "Ġdisplay": 4887,
      "Ġraise": 4888,
      "Ġpoem": 4889,
      "Ġpolite": 4890,
      "Ġpainful": 4891,
      "iances": 4892,
      "ycling": 4893,
      "Ġsurpr": 4894,
      "Ġtravelled": 4895,
      "Ġfriendship": 4896,
      "alent": 4897,
      "Ġbarbers": 4898,
      "Ġfamilies": 4899,
      "Ġtyped": 4900,
      "ĠKitchen": 4901,
      "Ġstronger": 4902,
      "Ġmedia": 4903,
      "Ġactor": 4904,
      "Ġdelivered": 4905,
      "Ġwarmth": 4906,
      "Ġmicrop": 4907,
      "ĠThat": 4908,
      "Ġgarlic": 4909,
      "Ġcharacters": 4910,
      "Ġwoods": 4911,
      "cond": 4912,
      "Ġpools": 4913,
      "Ġclimate": 4914,
      "Ġenvironmentally": 4915,
      "ĠStudying": 4916,
      "Ġ31": 4917,
      "Ġpraise": 4918,
      "Ġmedicines": 4919,
      "Ġsupermarkets": 4920,
      "Ġconsume": 4921,
      "Ġcapacity": 4922,
      "Ġdrawing": 4923,
      "Ġdesktop": 4924,
      "Ġsupposed": 4925,
      "rapers": 4926,
      "Ġmagma": 4927,
      "Ġstandard": 4928,
      "Ġmirrors": 4929,
      "Ġpasta": 4930,
      "ĠComputer": 4931,
      "Ġcircles": 4932,
      "Ġprogrammers": 4933,
      "Ġintro": 4934,
      "ĠRabbit": 4935,
      "Ġcostly": 4936,
      "Ġgiant": 4937,
      "ĠBaby": 4938,
      "Ġoppon": 4939,
      "Ġprize": 4940,
      "Ġadmitted": 4941,
      "Ġlifesty": 4942,
      "Ġscrub": 4943,
      "ology": 4944,
      "Ġexperience": 4945,
      "Ġhiking": 4946,
      "usement": 4947,
      "Ġfacial": 4948,
      "Ġlimited": 4949,
      "Ġthousand": 4950,
      "Ġresponsible": 4951,
      "Ġadvertise": 4952,
      "Ġinnoc": 4953,
      "ĠTurning": 4954,
      "Ġpractice": 4955,
      "Ġhelicopters": 4956,
      "Ġstrip": 4957,
      "Ġdeposited": 4958,
      "Ġmagazine": 4959,
      "Ġbuttons": 4960,
      "Ġlatest": 4961,
      "ĠAND": 4962,
      "Ġentrance": 4963,
      "Ġpilot": 4964,
      "Ġunhealthy": 4965,
      "Ġquench": 4966,
      "ĠHippos": 4967,
      "Ġsupplies": 4968,
      "Ġnotebook": 4969,
      "ĠHalloween": 4970,
      "Ġpharmacy": 4971,
      "aghetti": 4972,
      "Ġcoconut": 4973,
      "aid": 4974,
      "awn": 4975,
      "ailed": 4976,
      "bing": 4977,
      "fare": 4978,
      "fighters": 4979,
      "ibr": 4980,
      "mother": 4981,
      "ports": 4982,
      "ther": 4983,
      "vation": 4984,
      "ĠQ": 4985,
      "Ġtan": 4986,
      "head": 4987,
      "inates": 4988,
      "Ġsilk": 4989,
      "Ġsulfuric": 4990,
      "Ġcav": 4991,
      "Ġcert": 4992,
      "Ġcash": 4993,
      "Ġwolves": 4994,
      "Ġbats": 4995,
      "Ġbills": 4996,
      "Ġfog": 4997,
      "Ġport": 4998,
      "Ġplen": 4999,
      "Ġpushed": 5000,
      "Ġtown": 5001,
      "leum": 5002,
      "leach": 5003,
      "Ġmosquit": 5004,
      "atives": 5005,
      "Ġhanger": 5006,
      "Ġhope": 5007,
      "otions": 5008,
      "arah": 5009,
      "Ġinject": 5010,
      "enes": 5011,
      "Ġnap": 5012,
      "Ġloss": 5013,
      "Ġok": 5014,
      "Ġgather": 5015,
      "ĠTables": 5016,
      "ica": 5017,
      "illy": 5018,
      "Ġbeard": 5019,
      "opia": 5020,
      "Ġones": 5021,
      "ĠIs": 5022,
      "roleum": 5023,
      "Ġthun": 5024,
      "Ġthinking": 5025,
      "Ġstir": 5026,
      "Ġstairs": 5027,
      "ĠSarah": 5028,
      "ĠHoney": 5029,
      "unte": 5030,
      "rial": 5031,
      "imul": 5032,
      "ela": 5033,
      "elled": 5034,
      "Ġshut": 5035,
      "Ġshall": 5036,
      "Ġpeoples": 5037,
      "ĠPens": 5038,
      "ĠCanc": 5039,
      "ĠWhe": 5040,
      "ĠWomen": 5041,
      "stric": 5042,
      "ĠBri": 5043,
      "ĠBleach": 5044,
      "Ġteles": 5045,
      "Ġexch": 5046,
      "ĠDes": 5047,
      "Ġconst": 5048,
      "Ġjet": 5049,
      "Ġjack": 5050,
      "Ġjane": 5051,
      "Ġnoon": 5052,
      "Ġash": 5053,
      "Ġcolours": 5054,
      "Ġdonkey": 5055,
      "Ġbub": 5056,
      "ĠFor": 5057,
      "ĠEd": 5058,
      "Ġunless": 5059,
      "Ġcatches": 5060,
      "Ġups": 5061,
      "Ġskins": 5062,
      "ĠGet": 5063,
      "ĠGrocer": 5064,
      "ĠGlass": 5065,
      "ĠGolf": 5066,
      "Ġorgans": 5067,
      "Ġprint": 5068,
      "Ġprices": 5069,
      "ĠJess": 5070,
      "ipe": 5071,
      "Ġbookst": 5072,
      "agon": 5073,
      "Ġknock": 5074,
      "Ġknives": 5075,
      "ĠOr": 5076,
      "ĠOstric": 5077,
      "Ġchem": 5078,
      "Ġcheating": 5079,
      "Ġexpect": 5080,
      "Ġlighting": 5081,
      "Ġhardly": 5082,
      "Ġgrowth": 5083,
      "Ġfires": 5084,
      "Ġglob": 5085,
      "bern": 5086,
      "Ġrainforest": 5087,
      "Ġcolorless": 5088,
      "Ġtwent": 5089,
      "Ġtrained": 5090,
      "Ġamusement": 5091,
      "Ġlargest": 5092,
      "Ġcreated": 5093,
      "Ġrelig": 5094,
      "Ġheadphones": 5095,
      "Ġmarathon": 5096,
      "orns": 5097,
      "ĠKe": 5098,
      "Ġstrings": 5099,
      "Ġholding": 5100,
      "Ġaction": 5101,
      "ĠTomatoes": 5102,
      "Ġemotions": 5103,
      "Ġaccess": 5104,
      "fficient": 5105,
      "ĠThose": 5106,
      "Ġenjoyed": 5107,
      "Ġcharger": 5108,
      "Ġtoilets": 5109,
      "Ġ24": 5110,
      "ĠSpring": 5111,
      "Ġrefrigerators": 5112,
      "Ġsatell": 5113,
      "Ġdistur": 5114,
      "Ġtowards": 5115,
      "Ġhits": 5116,
      "Ġsoftware": 5117,
      "Ġeffective": 5118,
      "Ġbutterfly": 5119,
      "Ġconcent": 5120,
      "Ġappliances": 5121,
      "Ġexplore": 5122,
      "Ġconvenience": 5123,
      "Ġtrying": 5124,
      "Ġstrenuous": 5125,
      "ĠSquare": 5126,
      "Ġhibern": 5127,
      "Ġattractive": 5128,
      "Ġvaluable": 5129,
      "Ġswimsuit": 5130,
      "Ġrecover": 5131,
      "ĠIndian": 5132,
      "Ġslippers": 5133,
      "Ġstolen": 5134,
      "Ġathlet": 5135,
      "Ġpurchase": 5136,
      "Ġvitamin": 5137,
      "ĠCalcul": 5138,
      "ĠWorking": 5139,
      "Ġmechanic": 5140,
      "Ġvaccine": 5141,
      "Ġmillion": 5142,
      "ĠSeawater": 5143,
      "Ġcamera": 5144,
      "Ġkangaroo": 5145,
      "Ġassignment": 5146,
      "Ġfrequently": 5147,
      "ĠRefrigerators": 5148,
      "ĠRestaurant": 5149,
      "Ġoctop": 5150,
      "Ġfactories": 5151,
      "Ġhamster": 5152,
      "Ġtonight": 5153,
      "Ġcemetery": 5154,
      "ĠMountains": 5155,
      "Ġsearch": 5156,
      "Ġexperienced": 5157,
      "Ġlength": 5158,
      "Ġlifestyle": 5159,
      "Ġplenty": 5160,
      "ĠCancer": 5161,
      "ĠGrocery": 5162,
      "ĠOstriches": 5163,
      "'ll": 5164,
      "AC": 5165,
      "AY": 5166,
      "LY": 5167,
      "bl": 5168,
      "case": 5169,
      "cceed": 5170,
      "gress": 5171,
      "ij": 5172,
      "ige": 5173,
      "kind": 5174,
      "lin": 5175,
      "med": 5176,
      "nad": 5177,
      "night": 5178,
      "pot": 5179,
      "uries": 5180,
      "Ġ7": 5181,
      "Ġtuna": 5182,
      "hel": 5183,
      "Ġaer": 5184,
      "inst": 5185,
      "Ġsch": 5186,
      "Ġsile": 5187,
      "Ġcra": 5188,
      "Ġtheat": 5189,
      "anch": 5190,
      "Ġwish": 5191,
      "Ġbes": 5192,
      "Ġbun": 5193,
      "Ġbone": 5194,
      "Ġbars": 5195,
      "Ġbikini": 5196,
      "oni": 5197,
      "Ġfake": 5198,
      "Ġfaces": 5199,
      "Ġpanc": 5200,
      "Ġmis": 5201,
      "Ġmild": 5202,
      "ata": 5203,
      "Ġhill": 5204,
      "Ġhats": 5205,
      "Ġdrew": 5206,
      "Ġdata": 5207,
      "outer": 5208,
      "estern": 5209,
      "orist": 5210,
      "enn": 5211,
      "Ġnor": 5212,
      "Ġnational": 5213,
      "Ġlink": 5214,
      "Ġlanes": 5215,
      "Ġow": 5216,
      "Ġanem": 5217,
      "Ġevent": 5218,
      "icted": 5219,
      "ila": 5220,
      "Ġbeat": 5221,
      "opl": 5222,
      "Ġhero": 5223,
      "iruses": 5224,
      "Ġthro": 5225,
      "ĠAut": 5226,
      "Ġstat": 5227,
      "Ġstra": 5228,
      "Ġstable": 5229,
      "Ġstric": 5230,
      "Ġstimul": 5231,
      "ĠSto": 5232,
      "ĠSHE": 5233,
      "ĠHamb": 5234,
      "ĠHIS": 5235,
      "adp": 5236,
      "olars": 5237,
      "Ġrent": 5238,
      "ural": 5239,
      "raph": 5240,
      "iders": 5241,
      "ooded": 5242,
      "ĠCr": 5243,
      "ĠCle": 5244,
      "ĠCake": 5245,
      "umes": 5246,
      "Ġweigh": 5247,
      "Ġcarries": 5248,
      "Ġchili": 5249,
      "Ġchoice": 5250,
      "Ġrope": 5251,
      "uls": 5252,
      "stairs": 5253,
      "ĠBill": 5254,
      "ĠBike": 5255,
      "Ġfry": 5256,
      "Ġseven": 5257,
      "Ġspo": 5258,
      "Ġspatul": 5259,
      "Ġhasn": 5260,
      "aps": 5261,
      "Ġthanks": 5262,
      "ĠDR": 5263,
      "ĠDish": 5264,
      "Ġnovel": 5265,
      "Ġbuff": 5266,
      "Ġsmashed": 5267,
      "ĠEye": 5268,
      "ĠEinst": 5269,
      "Ġswitch": 5270,
      "istic": 5271,
      "Ġskipped": 5272,
      "Ġbranch": 5273,
      "ension": 5274,
      "ensable": 5275,
      "tains": 5276,
      "Ġprob": 5277,
      "ĠLind": 5278,
      "ĠLunch": 5279,
      "ĠLarge": 5280,
      "Ġsuitc": 5281,
      "Ġsucceed": 5282,
      "Ġoranges": 5283,
      "Ġpray": 5284,
      "ĠChocol": 5285,
      "Ġcomplex": 5286,
      "Ġtrust": 5287,
      "Ġtramp": 5288,
      "Ġloved": 5289,
      "Ġcoin": 5290,
      "ĠRed": 5291,
      "ĠRead": 5292,
      "ĠOven": 5293,
      "Ġhotels": 5294,
      "Ġbasic": 5295,
      "Ġhairdress": 5296,
      "Ġscrew": 5297,
      "obs": 5298,
      "obiles": 5299,
      "Ġopt": 5300,
      "Ġwouldn": 5301,
      "Ġmoved": 5302,
      "Ġraz": 5303,
      "Ġlaug": 5304,
      "Ġpaints": 5305,
      "Ġhunted": 5306,
      "Ġbreaks": 5307,
      "Ġbuses": 5308,
      "Ġcommit": 5309,
      "Ġproduces": 5310,
      "Ġslim": 5311,
      "Ġlandsc": 5312,
      "Ġpaws": 5313,
      "ushi": 5314,
      "Ġpeaches": 5315,
      "Ġresist": 5316,
      "ĠKore": 5317,
      "Ġcareer": 5318,
      "Ġwont": 5319,
      "Ġfathers": 5320,
      "Ġbroad": 5321,
      "Ġexamination": 5322,
      "Ġserves": 5323,
      "Ġremind": 5324,
      "Ġfinal": 5325,
      "Ġfinally": 5326,
      "Ġperf": 5327,
      "Ġcharging": 5328,
      "Ġconditions": 5329,
      "Ġindisp": 5330,
      "Ġburned": 5331,
      "ĠMonkey": 5332,
      "Ġvolunte": 5333,
      "Ġformal": 5334,
      "Ġtheaters": 5335,
      "Ġcapable": 5336,
      "Ġspeaker": 5337,
      "Ġcrossing": 5338,
      "Ġregard": 5339,
      "Ġcausing": 5340,
      "Ġpaintings": 5341,
      "Ġtornad": 5342,
      "Ġattended": 5343,
      "Ġprincess": 5344,
      "ĠPlastics": 5345,
      "Ġgrandpa": 5346,
      "Ġgrandfather": 5347,
      "Ġchanging": 5348,
      "Ġreflection": 5349,
      "Ġperformance": 5350,
      "ĠDriver": 5351,
      "Ġdeveloped": 5352,
      "Ġchewed": 5353,
      "Ġscratch": 5354,
      "Ġcurtains": 5355,
      "Ġstoring": 5356,
      "Ġdestroyed": 5357,
      "Ġdegree": 5358,
      "ĠExcessive": 5359,
      "Ġvariety": 5360,
      "Ġvalue": 5361,
      "Ġpeanuts": 5362,
      "ibility": 5363,
      "ĠPaul": 5364,
      "ĠWatermelons": 5365,
      "Ġmonsters": 5366,
      "Ġsatisfied": 5367,
      "Ġjogging": 5368,
      "ĠEyes": 5369,
      "ĠRubber": 5370,
      "ĠCement": 5371,
      "ĠNeed": 5372,
      "ĠCups": 5373,
      "alentine": 5374,
      "Ġcertific": 5375,
      "Ġtwenty": 5376,
      "Ġoctopus": 5377,
      "blooded": 5378,
      "Ġstrict": 5379,
      "olarship": 5380,
      "ĠEinstein": 5381,
      "ĠReading": 5382,
      "Ġlaughed": 5383,
      "Ġindispensable": 5384,
      "11": 5385,
      "AB": 5386,
      "EE": 5387,
      "OES": 5388,
      "ager": 5389,
      "aff": 5390,
      "bar": 5391,
      "cause": 5392,
      "gative": 5393,
      "gien": 5394,
      "ivery": 5395,
      "mp": 5396,
      "mers": 5397,
      "mills": 5398,
      "paper": 5399,
      "rom": 5400,
      "wards": 5401,
      "Ġ.": 5402,
      "Ġterm": 5403,
      "Ġtiny": 5404,
      "Ġaqu": 5405,
      "Ġaverage": 5406,
      "inist": 5407,
      "Ġsang": 5408,
      "Ġsounds": 5409,
      "Ġsushi": 5410,
      "Ġcas": 5411,
      "Ġcaterpill": 5412,
      "erch": 5413,
      "Ġbare": 5414,
      "Ġburger": 5415,
      "isher": 5416,
      "iskey": 5417,
      "Ġfab": 5418,
      "Ġpans": 5419,
      "Ġperm": 5420,
      "Ġpaying": 5421,
      "Ġpsy": 5422,
      "Ġmine": 5423,
      "Ġmilitary": 5424,
      "athe": 5425,
      "oudy": 5426,
      "orce": 5427,
      "arily": 5428,
      "enny": 5429,
      "itution": 5430,
      "alo": 5431,
      "alle": 5432,
      "Ġoak": 5433,
      "ĠTable": 5434,
      "Ġanvil": 5435,
      "Ġeconom": 5436,
      "Ġemergency": 5437,
      "Ġbell": 5438,
      "irm": 5439,
      "irie": 5440,
      "Ġnotice": 5441,
      "lymp": 5442,
      "Ġforward": 5443,
      "ached": 5444,
      "ackets": 5445,
      "Ġthread": 5446,
      "ĠAunt": 5447,
      "Ġsticks": 5448,
      "ĠSatur": 5449,
      "ĠHats": 5450,
      "riate": 5451,
      "entil": 5452,
      "Ġrefe": 5453,
      "Ġshame": 5454,
      "ĠPool": 5455,
      "ĠCO": 5456,
      "ĠCur": 5457,
      "ĠCand": 5458,
      "ĠCorn": 5459,
      "ĠCigaret": 5460,
      "ĠMed": 5461,
      "ĠMud": 5462,
      "ĠMag": 5463,
      "Ġwhiskey": 5464,
      "ĠWith": 5465,
      "ĠWIT": 5466,
      "Ġraces": 5467,
      "Ġrange": 5468,
      "Ġrisk": 5469,
      "ulpt": 5470,
      "ifi": 5471,
      "Ġcloudy": 5472,
      "ĠBikes": 5473,
      "Ġlect": 5474,
      "Ġleash": 5475,
      "Ġlent": 5476,
      "Ġleaving": 5477,
      "Ġspoke": 5478,
      "fection": 5479,
      "Ġgod": 5480,
      "ĠDan": 5481,
      "Ġmoves": 5482,
      "Ġrockets": 5483,
      "Ġsomewhere": 5484,
      "ĠFast": 5485,
      "ĠFive": 5486,
      "ĠEVER": 5487,
      "Ġventil": 5488,
      "orthern": 5489,
      "Ġtread": 5490,
      "Ġshoulder": 5491,
      "Ġupstairs": 5492,
      "istol": 5493,
      "Ġskate": 5494,
      "Ġproh": 5495,
      "ĠLotion": 5496,
      "Ġcookies": 5497,
      "iple": 5498,
      "Ġlotus": 5499,
      "Ġseems": 5500,
      "ometer": 5501,
      "Ġknew": 5502,
      "Ġhandbag": 5503,
      "Ġcoins": 5504,
      "ĠRoses": 5505,
      "ĠNow": 5506,
      "ĠNorm": 5507,
      "ĠNails": 5508,
      "ĠOld": 5509,
      "ĠOce": 5510,
      "Ġchest": 5511,
      "Ġscal": 5512,
      "Ġscient": 5513,
      "Ġsculpt": 5514,
      "Ġwriter": 5515,
      "ĠAncient": 5516,
      "Ġfired": 5517,
      "action": 5518,
      "Ġwheat": 5519,
      "Ġdisco": 5520,
      "place": 5521,
      "Ġanywhere": 5522,
      "Ġbadly": 5523,
      "Ġmusical": 5524,
      "Ġtasty": 5525,
      "Ġstepped": 5526,
      "ption": 5527,
      "elsi": 5528,
      "Ġtravels": 5529,
      "Ġproducing": 5530,
      "Ġgrassland": 5531,
      "Ġimpact": 5532,
      "Ġemp": 5533,
      "Ġemotion": 5534,
      "Ġdelivery": 5535,
      "Ġbeauty": 5536,
      "Ġfinan": 5537,
      "Ġshaped": 5538,
      "ĠThree": 5539,
      "Ġperio": 5540,
      "Ġbelt": 5541,
      "Ġcondiment": 5542,
      "ĠBecause": 5543,
      "Ġcooler": 5544,
      "Ġdecl": 5545,
      "Ġguard": 5546,
      "Ġguest": 5547,
      "Ġsurfing": 5548,
      "Ġspray": 5549,
      "Ġextra": 5550,
      "Ġreply": 5551,
      "Ġrepresent": 5552,
      "Ġprairie": 5553,
      "Ġformed": 5554,
      "Ġdeadly": 5555,
      "Ġdrawers": 5556,
      "Ġequator": 5557,
      "Ġsurvival": 5558,
      "azz": 5559,
      "lode": 5560,
      "Ġtorch": 5561,
      "Ġweddings": 5562,
      "Ġemployee": 5563,
      "Ġdishwashers": 5564,
      "Ġfinishing": 5565,
      "Ġpencils": 5566,
      "Ġintake": 5567,
      "Ġdamages": 5568,
      "ĠTrucks": 5569,
      "Ġgrandmother": 5570,
      "Ġrelaxing": 5571,
      "ĠBoys": 5572,
      "Ġneckl": 5573,
      "Ġsmartphone": 5574,
      "Ġproperly": 5575,
      "Ġoccas": 5576,
      "Ġevidence": 5577,
      "Ġreflects": 5578,
      "ropriate": 5579,
      "Ġadminist": 5580,
      "Ġcollected": 5581,
      "ĠSquirre": 5582,
      "Ġweapons": 5583,
      "Ġmixed": 5584,
      "Ġelim": 5585,
      "ĠAfrican": 5586,
      "Ġ911": 5587,
      "Ġtelephones": 5588,
      "Ġstealing": 5589,
      "Ġsewing": 5590,
      "Ġsubstances": 5591,
      "Ġhamburgers": 5592,
      "Ġutensil": 5593,
      "Ġseasons": 5594,
      "Ġjohn": 5595,
      "ĠKnives": 5596,
      "Ġbounce": 5597,
      "Ġdiscip": 5598,
      "Ġnurse": 5599,
      "OOD": 5600,
      "Ġqualif": 5601,
      "Ġterrorist": 5602,
      "Ġlenses": 5603,
      "Ġfollow": 5604,
      "Ġprimary": 5605,
      "Ġinflu": 5606,
      "Ġcouple": 5607,
      "ĠHelicop": 5608,
      "ĠUniverse": 5609,
      "Ġbleeding": 5610,
      "Ġhalf": 5611,
      "Ġphotosynthesize": 5612,
      "Ġreduce": 5613,
      "Ġstaples": 5614,
      "Ġwithdraw": 5615,
      "Ġqueue": 5616,
      "Ġadvantage": 5617,
      "Ġlux": 5618,
      "ĠSilver": 5619,
      "Ġkilogram": 5620,
      "Ġdescribe": 5621,
      "Ġinnocent": 5622,
      "Ġtelescope": 5623,
      "Ġupset": 5624,
      "Ġsatellite": 5625,
      "Ġsilent": 5626,
      "Ġtheatre": 5627,
      "Ġmildew": 5628,
      "Ġthroat": 5629,
      "Ġbuffalo": 5630,
      "ĠLinda": 5631,
      "Ġrazor": 5632,
      "Ġlandscape": 5633,
      "Ġcertificate": 5634,
      "Ġpsych": 5635,
      "ĠSaturday": 5636,
      "ĠCigarettes": 5637,
      "ĠWITH": 5638,
      "ĠEVERY": 5639,
      "Ġadministr": 5640,
      "KE": 5641,
      "PU": 5642,
      "UR": 5643,
      "VD": 5644,
      "bin": 5645,
      "bid": 5646,
      "book": 5647,
      "cr": 5648,
      "cast": 5649,
      "ha": 5650,
      "mometer": 5651,
      "nies": 5652,
      "par": 5653,
      "sper": 5654,
      "senic": 5655,
      "tles": 5656,
      "writing": 5657,
      "xic": 5658,
      "zon": 5659,
      "Ġirre": 5660,
      "Ġtent": 5661,
      "Ġtuit": 5662,
      "inted": 5663,
      "Ġsets": 5664,
      "Ġcable": 5665,
      "Ġcricket": 5666,
      "Ġthese": 5667,
      "anish": 5668,
      "Ġwel": 5669,
      "Ġwire": 5670,
      "eries": 5671,
      "Ġboo": 5672,
      "Ġbaking": 5673,
      "Ġbicycles": 5674,
      "isions": 5675,
      "Ġfill": 5676,
      "Ġfles": 5677,
      "Ġfare": 5678,
      "Ġfiles": 5679,
      "Ġfumes": 5680,
      "Ġphen": 5681,
      "Ġpistol": 5682,
      "Ġtofu": 5683,
      "Ġmad": 5684,
      "Ġmouses": 5685,
      "atme": 5686,
      "attered": 5687,
      "Ġdug": 5688,
      "ingale": 5689,
      "Ġiss": 5690,
      "Ġinfection": 5691,
      "ences": 5692,
      "itan": 5693,
      "itable": 5694,
      "itory": 5695,
      "alous": 5696,
      "Ġnation": 5697,
      "Ġlone": 5698,
      "asant": 5699,
      "asks": 5700,
      "Ġgills": 5701,
      "Ġgrapes": 5702,
      "ĠID": 5703,
      "etic": 5704,
      "roves": 5705,
      "ĠAma": 5706,
      "ĠAlex": 5707,
      "Ġstations": 5708,
      "Ġstamps": 5709,
      "ĠSub": 5710,
      "ĠSaying": 5711,
      "ĠSince": 5712,
      "ĠHard": 5713,
      "ĠHouse": 5714,
      "uning": 5715,
      "verages": 5716,
      "olite": 5717,
      "Ġshave": 5718,
      "ĠPork": 5719,
      "ĠPizza": 5720,
      "oscope": 5721,
      "chup": 5722,
      "ĠCotton": 5723,
      "ĠMO": 5724,
      "ĠMP": 5725,
      "ĠMr": 5726,
      "ĠMamm": 5727,
      "Ġweb": 5728,
      "anded": 5729,
      "Ġcho": 5730,
      "Ġchose": 5731,
      "ulner": 5732,
      "Ġmyopia": 5733,
      "Ġcler": 5734,
      "Ġclay": 5735,
      "ĠBen": 5736,
      "ĠBag": 5737,
      "ĠBicycle": 5738,
      "ounced": 5739,
      "outube": 5740,
      "Ġspit": 5741,
      "Ġsphere": 5742,
      "Ġspaghetti": 5743,
      "epend": 5744,
      "Ġdrug": 5745,
      "ĠYoutube": 5746,
      "Ġexting": 5747,
      "ĠDVD": 5748,
      "Ġconcept": 5749,
      "Ġjoy": 5750,
      "Ġjewelry": 5751,
      "Ġjackets": 5752,
      "Ġcoll": 5753,
      "Ġroot": 5754,
      "Ġdonate": 5755,
      "Ġbugs": 5756,
      "ĠFR": 5757,
      "ĠFEET": 5758,
      "Ġsmelled": 5759,
      "Ġvulner": 5760,
      "Ġfear": 5761,
      "Ġfever": 5762,
      "Ġtreats": 5763,
      "Ġblocks": 5764,
      "oolish": 5765,
      "Ġflavor": 5766,
      "istry": 5767,
      "istance": 5768,
      "Ġdried": 5769,
      "ĠLast": 5770,
      "ĠLaw": 5771,
      "ĠGlasses": 5772,
      "Ġdeer": 5773,
      "ĠJunk": 5774,
      "ipes": 5775,
      "oths": 5776,
      "Ġcompass": 5777,
      "Ġcompared": 5778,
      "Ġcomplete": 5779,
      "Ġlottery": 5780,
      "agull": 5781,
      "Ġripe": 5782,
      "Ġcoke": 5783,
      "Ġstudied": 5784,
      "rently": 5785,
      "Ġfinding": 5786,
      "Ġscales": 5787,
      "Ġhealthier": 5788,
      "Ġskysc": 5789,
      "Ġhelping": 5790,
      "Ġearphone": 5791,
      "Ġfeelings": 5792,
      "Ġopens": 5793,
      "acture": 5794,
      "Ġmaybe": 5795,
      "Ġeyeb": 5796,
      "Ġwhether": 5797,
      "Ġdisasters": 5798,
      "ĠDoors": 5799,
      "Ġdriveway": 5800,
      "orkn": 5801,
      "ĠUran": 5802,
      "umpet": 5803,
      "Ġbetray": 5804,
      "Ġballoon": 5805,
      "ethoscope": 5806,
      "Ġrelated": 5807,
      "anced": 5808,
      "anches": 5809,
      "ucky": 5810,
      "Ġsandals": 5811,
      "Ġfamili": 5812,
      "Ġtyre": 5813,
      "Ġprotein": 5814,
      "Ġresults": 5815,
      "ĠKing": 5816,
      "Ġimpress": 5817,
      "Ġimpolite": 5818,
      "Ġwonder": 5819,
      "Ġlovely": 5820,
      "ocr": 5821,
      "Ġdeliver": 5822,
      "Ġdarker": 5823,
      "Ġmouths": 5824,
      "ammable": 5825,
      "ĠShopping": 5826,
      "Ġheavily": 5827,
      "Ġowns": 5828,
      "Ġpickles": 5829,
      "ĠThieves": 5830,
      "Ġbelly": 5831,
      "oudspe": 5832,
      "Ġelectrical": 5833,
      "ĠAmericans": 5834,
      "Ġguy": 5835,
      "Ġguys": 5836,
      "Ġsurfboard": 5837,
      "Ġdistances": 5838,
      "Ġclimbs": 5839,
      "Ġhearing": 5840,
      "Ġunique": 5841,
      "Ġshelves": 5842,
      "Ġvolley": 5843,
      "apping": 5844,
      "Ġmalls": 5845,
      "clip": 5846,
      "ĠUncle": 5847,
      "Ġlamps": 5848,
      "Ġweekend": 5849,
      "Ġassem": 5850,
      "Ġexistence": 5851,
      "Ġclassrooms": 5852,
      "Ġbully": 5853,
      "Ġborder": 5854,
      "ambling": 5855,
      "Ġunlike": 5856,
      "Ġunlucky": 5857,
      "Ġoperation": 5858,
      "Ġbarks": 5859,
      "Ġbarking": 5860,
      "Ġdepart": 5861,
      "ĠElephant": 5862,
      "Ġprinc": 5863,
      "Ġchocolates": 5864,
      "urious": 5865,
      "Ġ50": 5866,
      "Ġhygien": 5867,
      "Ġevents": 5868,
      "Ġevapor": 5869,
      "Ġkidney": 5870,
      "Ġdevelopment": 5871,
      "ĠFriday": 5872,
      "Ġpowered": 5873,
      "prints": 5874,
      "Ġballet": 5875,
      "Ġcenter": 5876,
      "Ġcenters": 5877,
      "ĠBanana": 5878,
      "ieties": 5879,
      "Ġvarieties": 5880,
      "ĠLightning": 5881,
      "Ġbarbecues": 5882,
      "Ġpedal": 5883,
      "Ġpositive": 5884,
      "Ġhurts": 5885,
      "Ġstressful": 5886,
      "Ġrecogn": 5887,
      "Ġslippery": 5888,
      "Ġtropics": 5889,
      "Ġphotographer": 5890,
      "Ġphotograph": 5891,
      "Ġhelicopter": 5892,
      "Ġnurses": 5893,
      "Ġlucky": 5894,
      "Ġathlete": 5895,
      "Ġcompetition": 5896,
      "Ġlaboratory": 5897,
      "ĠBathtub": 5898,
      "ĠPetrol": 5899,
      "ĠMicrow": 5900,
      "Ġchatting": 5901,
      "Ġjealous": 5902,
      "Ġdustbin": 5903,
      "Ġdivided": 5904,
      "Ġautomobile": 5905,
      "ibited": 5906,
      "Ġthird": 5907,
      "ĠCutting": 5908,
      "ĠMirrors": 5909,
      "Ġresources": 5910,
      "marines": 5911,
      "ĠBottles": 5912,
      "ĠGlue": 5913,
      "known": 5914,
      "Ġachieve": 5915,
      "Ġindustrial": 5916,
      "Ġpedestrian": 5917,
      "ĠMovie": 5918,
      "Ġcitizen": 5919,
      "Ġregularly": 5920,
      "Ġbiscuits": 5921,
      "Ġcommercials": 5922,
      "Ġfermented": 5923,
      "Ġteddy": 5924,
      "condition": 5925,
      "ĠJessie": 5926,
      "Ġbookstore": 5927,
      "Ġglobe": 5928,
      "Ġbeside": 5929,
      "ĠHamburgers": 5930,
      "ĠDishwas": 5931,
      "Ġhairdresser": 5932,
      "ishermen": 5933,
      "Ġfabric": 5934,
      "Ġreferee": 5935,
      "Ġfinancial": 5936,
      "Ġnecklace": 5937,
      "Ġmildewed": 5938,
      "Ġpsycholog": 5939,
      "Ġtuition": 5940,
      "Ġphenomen": 5941,
      "atmeal": 5942,
      "Ġlonely": 5943,
      "ĠAmazon": 5944,
      "Ġextingu": 5945,
      "Ġvulnerable": 5946,
      "Ġeyebrows": 5947,
      "Ġfamiliar": 5948,
      "'ve": 5949,
      "LS": 5950,
      "born": 5951,
      "bye": 5952,
      "crapers": 5953,
      "dles": 5954,
      "gg": 5955,
      "house": 5956,
      "ibits": 5957,
      "jamas": 5958,
      "male": 5959,
      "oved": 5960,
      "oison": 5961,
      "por": 5962,
      "uf": 5963,
      "uly": 5964,
      "yp": 5965,
      "yers": 5966,
      "ĠX": 5967,
      "Ġouter": 5968,
      "hell": 5969,
      "Ġahead": 5970,
      "inen": 5971,
      "Ġsud": 5972,
      "Ġsens": 5973,
      "aning": 5974,
      "anim": 5975,
      "anical": 5976,
      "Ġwifi": 5977,
      "Ġbou": 5978,
      "Ġbound": 5979,
      "Ġbunk": 5980,
      "Ġbiolog": 5981,
      "oned": 5982,
      "Ġfig": 5983,
      "Ġfash": 5984,
      "Ġpic": 5985,
      "Ġpace": 5986,
      "Ġpears": 5987,
      "Ġmop": 5988,
      "Ġmowed": 5989,
      "Ġmental": 5990,
      "atched": 5991,
      "Ġhob": 5992,
      "aroni": 5993,
      "Ġintern": 5994,
      "Ġincon": 5995,
      "Ġinanim": 5996,
      "enry": 5997,
      "itter": 5998,
      "Ġnone": 5999,
      "Ġloudspe": 6000,
      "ashes": 6001,
      "Ġgender": 6002,
      "ĠTH": 6003,
      "Ġease": 6004,
      "icide": 6005,
      "icious": 6006,
      "Ġbees": 6007,
      "Ġbeverages": 6008,
      "Ġheater": 6009,
      "ĠII": 6010,
      "Ġlies": 6011,
      "Ġforbid": 6012,
      "acaroni": 6013,
      "ĠARE": 6014,
      "ĠALS": 6015,
      "Ġstaff": 6016,
      "ĠSH": 6017,
      "ĠSup": 6018,
      "Ġyog": 6019,
      "ĠHenry": 6020,
      "rier": 6021,
      "verted": 6022,
      "Ġshorts": 6023,
      "Ġshirts": 6024,
      "urance": 6025,
      "ĠPure": 6026,
      "ĠPoison": 6027,
      "ami": 6028,
      "amble": 6029,
      "osh": 6030,
      "rail": 6031,
      "ĠCind": 6032,
      "ĠMe": 6033,
      "ĠMach": 6034,
      "ĠMark": 6035,
      "ĠMaking": 6036,
      "illa": 6037,
      "ctors": 6038,
      "ctions": 6039,
      "Ġnegative": 6040,
      "Ġwealth": 6041,
      "Ġwhisk": 6042,
      "ĠWi": 6043,
      "ĠWal": 6044,
      "ĠWolf": 6045,
      "Ġchilies": 6046,
      "Ġrays": 6047,
      "ooking": 6048,
      "Ġclin": 6049,
      "ĠBel": 6050,
      "ĠBible": 6051,
      "ĠBamboo": 6052,
      "Ġsexy": 6053,
      "Ġking": 6054,
      "Ġkitten": 6055,
      "Ġmankind": 6056,
      "Ġmanuf": 6057,
      "Ġspark": 6058,
      "Ġspare": 6059,
      "Ġtear": 6060,
      "Ġdrill": 6061,
      "upiter": 6062,
      "ĠDuring": 6063,
      "iley": 6064,
      "Ġconse": 6065,
      "Ġconvers": 6066,
      "Ġworms": 6067,
      "Ġsheets": 6068,
      "Ġneedle": 6069,
      "Ġjoe": 6070,
      "Ġjelly": 6071,
      "quet": 6072,
      "quence": 6073,
      "icking": 6074,
      "Ġcolored": 6075,
      "Ġrole": 6076,
      "Ġdonut": 6077,
      "ells": 6078,
      "Ġmeats": 6079,
      "arsh": 6080,
      "ĠFOR": 6081,
      "Ġvision": 6082,
      "Ġviruses": 6083,
      "Ġfemale": 6084,
      "ortun": 6085,
      "ackers": 6086,
      "Ġswamp": 6087,
      "Ġunit": 6088,
      "Ġunic": 6089,
      "Ġuncon": 6090,
      "Ġflown": 6091,
      "Ġbranches": 6092,
      "ĠLos": 6093,
      "ĠLear": 6094,
      "ĠGreat": 6095,
      "arten": 6096,
      "Ġdecre": 6097,
      "Ġpricked": 6098,
      "ĠJupiter": 6099,
      "Ġtrumpet": 6100,
      "ĠWearing": 6101,
      "Ġsaf": 6102,
      "agn": 6103,
      "ometers": 6104,
      "Ġrip": 6105,
      "days": 6106,
      "Ġhandwriting": 6107,
      "Ġloaf": 6108,
      "Ġbiggest": 6109,
      "Ġcock": 6110,
      "ĠRem": 6111,
      "venient": 6112,
      "Ġapplic": 6113,
      "ĠOp": 6114,
      "Ġmoonlight": 6115,
      "Ġallows": 6116,
      "Ġbasin": 6117,
      "hedu": 6118,
      "ueen": 6119,
      "Ġscold": 6120,
      "Ġschedu": 6121,
      "ighter": 6122,
      "Ġgreet": 6123,
      "anged": 6124,
      "angers": 6125,
      "Ġnightingale": 6126,
      "Ġwinds": 6127,
      "Ġrails": 6128,
      "Ġpolish": 6129,
      "Ġanym": 6130,
      "Ġadvice": 6131,
      "Ġprev": 6132,
      "Ġtwice": 6133,
      "coons": 6134,
      "Ġamaz": 6135,
      "Ġhunting": 6136,
      "erced": 6137,
      "Ġrefresh": 6138,
      "Ġmilksh": 6139,
      "Ġoceans": 6140,
      "Ġslice": 6141,
      "Ġattitude": 6142,
      "Ġrelatives": 6143,
      "creation": 6144,
      "Ġpolicemen": 6145,
      "Ġcontract": 6146,
      "Ġfastest": 6147,
      "Ġcares": 6148,
      "Ġmetro": 6149,
      "Ġobtain": 6150,
      "Ġactually": 6151,
      "Ġactions": 6152,
      "Ġemit": 6153,
      "ergarten": 6154,
      "ĠShips": 6155,
      "Ġaccept": 6156,
      "rolled": 6157,
      "levisions": 6158,
      "Ġbirthdays": 6159,
      "ĠCloud": 6160,
      "Ġgardens": 6161,
      "Ġgardener": 6162,
      "ĠBeij": 6163,
      "Ġ18": 6164,
      "Ġcooling": 6165,
      "Ġdecay": 6166,
      "Ġcryst": 6167,
      "Ġguests": 6168,
      "Ġindoor": 6169,
      "ĠSunglasses": 6170,
      "Ġwaist": 6171,
      "Ġburning": 6172,
      "Ġsnowy": 6173,
      "ĠDrink": 6174,
      "ĠMonet": 6175,
      "ĠAircraft": 6176,
      "apped": 6177,
      "Ġcapital": 6178,
      "Ġparrot": 6179,
      "Ġdrawer": 6180,
      "Ġtomatoes": 6181,
      "Ġpropos": 6182,
      "Ġaddicted": 6183,
      "Ġsupply": 6184,
      "Ġsticky": 6185,
      "Ġmicrowaves": 6186,
      "Ġkilometers": 6187,
      "Ġabsence": 6188,
      "Ġequal": 6189,
      "Ġbullet": 6190,
      "Ġpunct": 6191,
      "Ġartic": 6192,
      "ield": 6193,
      "ĠSmall": 6194,
      "Ġtrucks": 6195,
      "Ġcombust": 6196,
      "Ġmelon": 6197,
      "Ġfrog": 6198,
      "Ġdigging": 6199,
      "ĠTrans": 6200,
      "ĠTrump": 6201,
      "Ġhabitation": 6202,
      "Ġ500": 6203,
      "Ġtriang": 6204,
      "Ġaward": 6205,
      "Ġhyp": 6206,
      "Ġchanges": 6207,
      "Ġfingerprints": 6208,
      "ĠDinner": 6209,
      "Ġmoment": 6210,
      "Ġopportun": 6211,
      "Ġblankets": 6212,
      "Ġpillows": 6213,
      "proof": 6214,
      "Ġcollecting": 6215,
      "ĠSquids": 6216,
      "Ġerr": 6217,
      "Ġbehind": 6218,
      "Ġseasoning": 6219,
      "ĠCrocodile": 6220,
      "Ġgraduate": 6221,
      "ĠPotatoes": 6222,
      "ĠExerc": 6223,
      "Ġpeeling": 6224,
      "Ġfacilities": 6225,
      "Ġdefin": 6226,
      "Ġrotten": 6227,
      "Ġ60": 6228,
      "Ġsewage": 6229,
      "Ġsailors": 6230,
      "Ġrenter": 6231,
      "ĠPhone": 6232,
      "Ġprisoners": 6233,
      "Ġharbor": 6234,
      "Ġadvertising": 6235,
      "Ġpunishment": 6236,
      "Ġprogramming": 6237,
      "ĠAtl": 6238,
      "Ġastronauts": 6239,
      "ictionary": 6240,
      "ĠCanad": 6241,
      "Ġlogical": 6242,
      "Ġdislike": 6243,
      "Ġterritory": 6244,
      "Ġvitamins": 6245,
      "Ġviolent": 6246,
      "Ġviolence": 6247,
      "Ġexplosion": 6248,
      "Ġexplosive": 6249,
      "Ġloser": 6250,
      "Ġlosing": 6251,
      "ĠMotorc": 6252,
      "Ġsuffering": 6253,
      "Ġhumid": 6254,
      "ĠWalls": 6255,
      "ĠEATS": 6256,
      "Ġoutdoors": 6257,
      "Ġencouragement": 6258,
      "Ġmeasuring": 6259,
      "Ġmonitors": 6260,
      "Ġstrawberry": 6261,
      "ĠMosquitoes": 6262,
      "esticides": 6263,
      "Ġpassengers": 6264,
      "Ġharvest": 6265,
      "Ġconductor": 6266,
      "Ġcarpet": 6267,
      "Ġpopulation": 6268,
      "Ġstyles": 6269,
      "ĠHAVE": 6270,
      "ĠPlayers": 6271,
      "Ġrefreshing": 6272,
      "Ġeraser": 6273,
      "Ġthermometer": 6274,
      "Ġjourney": 6275,
      "ĠEverest": 6276,
      "Ġopinion": 6277,
      "Ġbarbershop": 6278,
      "Ġmicrophone": 6279,
      "Ġintrodu": 6280,
      "ĠQueen": 6281,
      "ĠCalculator": 6282,
      "Ġscholarship": 6283,
      "Ġpancake": 6284,
      "Ġspatula": 6285,
      "Ġprobably": 6286,
      "Ġsuitcase": 6287,
      "Ġtornado": 6288,
      "ĠOcean": 6289,
      "Ġscalp": 6290,
      "Ġinfluence": 6291,
      "Ġflesh": 6292,
      "Ġchoir": 6293,
      "ĠLawyers": 6294,
      "orknobs": 6295,
      "Ġhygiene": 6296,
      "Ġsudden": 6297,
      "Ġfashion": 6298,
      "Ġpicn": 6299,
      "Ġinconvenient": 6300,
      "Ġinanimate": 6301,
      "ĠALSO": 6302,
      "ĠLearning": 6303,
      "ĠBeijing": 6304,
      "AI": 6305,
      "EM": 6306,
      "IM": 6307,
      "MB": 6308,
      "NING": 6309,
      "SE": 6310,
      "bra": 6311,
      "bors": 6312,
      "chers": 6313,
      "dor": 6314,
      "fi": 6315,
      "foot": 6316,
      "gi": 6317,
      "hood": 6318,
      "hold": 6319,
      "hones": 6320,
      "iable": 6321,
      "iked": 6322,
      "mb": 6323,
      "mail": 6324,
      "mod": 6325,
      "misp": 6326,
      "ners": 6327,
      "rup": 6328,
      "tion": 6329,
      "xas": 6330,
      "Ġx": 6331,
      "Ġur": 6332,
      "Ġket": 6333,
      "Ġip": 6334,
      "Ġtid": 6335,
      "Ġtons": 6336,
      "inas": 6337,
      "Ġcuring": 6338,
      "Ġwand": 6339,
      "erate": 6340,
      "erved": 6341,
      "Ġban": 6342,
      "isible": 6343,
      "Ġfet": 6344,
      "Ġfert": 6345,
      "Ġpure": 6346,
      "Ġpunch": 6347,
      "Ġpull": 6348,
      "Ġmaster": 6349,
      "Ġmugs": 6350,
      "Ġmercury": 6351,
      "Ġhom": 6352,
      "Ġhug": 6353,
      "Ġharsh": 6354,
      "Ġdus": 6355,
      "Ġdens": 6356,
      "Ġdip": 6357,
      "Ġdough": 6358,
      "ouder": 6359,
      "Ġislands": 6360,
      "ora": 6361,
      "ota": 6362,
      "arbage": 6363,
      "ency": 6364,
      "itting": 6365,
      "edom": 6366,
      "alled": 6367,
      "Ġnames": 6368,
      "Ġlacks": 6369,
      "Ġloose": 6370,
      "Ġlouder": 6371,
      "Ġgerm": 6372,
      "Ġgambling": 6373,
      "ĠTen": 6374,
      "ĠTorn": 6375,
      "Ġeld": 6376,
      "ilots": 6377,
      "Ġheated": 6378,
      "irds": 6379,
      "acon": 6380,
      "Ġthri": 6381,
      "ĠAc": 6382,
      "Ġstains": 6383,
      "ĠSu": 6384,
      "adio": 6385,
      "uth": 6386,
      "utation": 6387,
      "olution": 6388,
      "Ġrele": 6389,
      "Ġreality": 6390,
      "Ġreactor": 6391,
      "owing": 6392,
      "ĠHead": 6393,
      "ĠPL": 6394,
      "ĠPer": 6395,
      "ĠPam": 6396,
      "ĠPass": 6397,
      "ĠPilots": 6398,
      "aman": 6399,
      "osts": 6400,
      "osable": 6401,
      "ĠCam": 6402,
      "ĠCelsi": 6403,
      "ĠMet": 6404,
      "ĠMake": 6405,
      "ĠMong": 6406,
      "Ġwebs": 6407,
      "Ġcarto": 6408,
      "Ġcarved": 6409,
      "ablo": 6410,
      "Ġwaterproof": 6411,
      "ĠWild": 6412,
      "Ġchinese": 6413,
      "Ġracket": 6414,
      "star": 6415,
      "ify": 6416,
      "Ġclown": 6417,
      "ĠBro": 6418,
      "ĠBars": 6419,
      "Ġseed": 6420,
      "Ġsepar": 6421,
      "geles": 6422,
      "Ġkenn": 6423,
      "Ġleast": 6424,
      "pping": 6425,
      "ounter": 6426,
      "Ġwhenever": 6427,
      "ĠYellow": 6428,
      "inemas": 6429,
      "ĠDav": 6430,
      "ĠDucks": 6431,
      "Ġcomfort": 6432,
      "Ġworried": 6433,
      "Ġjosh": 6434,
      "Ġcolle": 6435,
      "Ġrod": 6436,
      "ellig": 6437,
      "ĠFe": 6438,
      "ĠFam": 6439,
      "ĠFans": 6440,
      "Ġbecoming": 6441,
      "ĠEl": 6442,
      "ĠEven": 6443,
      "Ġvom": 6444,
      "Ġvending": 6445,
      "Ġvapor": 6446,
      "Ġfee": 6447,
      "ademic": 6448,
      "Ġblade": 6449,
      "Ġswitc": 6450,
      "Ġswallow": 6451,
      "Ġflaming": 6452,
      "Ġgrind": 6453,
      "ĠLot": 6454,
      "ĠLeop": 6455,
      "ĠLow": 6456,
      "ĠList": 6457,
      "ĠLong": 6458,
      "ĠGarbage": 6459,
      "Ġbreaking": 6460,
      "balls": 6461,
      "Ġprince": 6462,
      "ĠJune": 6463,
      "ĠJenny": 6464,
      "ĠJuly": 6465,
      "ipers": 6466,
      "ipate": 6467,
      "ended": 6468,
      "Ġcompl": 6469,
      "Ġlovers": 6470,
      "Ġcoal": 6471,
      "ĠRice": 6472,
      "ĠRob": 6473,
      "ĠRadio": 6474,
      "ĠStap": 6475,
      "ĠStick": 6476,
      "ĠNail": 6477,
      "ĠNuclear": 6478,
      "Ġappro": 6479,
      "ĠOF": 6480,
      "ĠOlymp": 6481,
      "Ġpersons": 6482,
      "Ġexposed": 6483,
      "osex": 6484,
      "ĠAngeles": 6485,
      "Ġresting": 6486,
      "izer": 6487,
      "ĠDoctors": 6488,
      "Ġrained": 6489,
      "Ġclassical": 6490,
      "Ġpenalty": 6491,
      "Ġtasted": 6492,
      "ĠUse": 6493,
      "Ġwins": 6494,
      "Ġfunerals": 6495,
      "Ġknown": 6496,
      "Ġmothers": 6497,
      "Ġproduction": 6498,
      "Ġreluct": 6499,
      "Ġearthqu": 6500,
      "Ġbotanical": 6501,
      "Ġheadache": 6502,
      "Ġcontrib": 6503,
      "Ġpeace": 6504,
      "Ġpeach": 6505,
      "Ġfloated": 6506,
      "Ġexercised": 6507,
      "Ġsweets": 6508,
      "Ġstrangers": 6509,
      "iolet": 6510,
      "Ġmedal": 6511,
      "Ġmedium": 6512,
      "Ġaggress": 6513,
      "Ġtransl": 6514,
      "Ġentered": 6515,
      "Ġaccidents": 6516,
      "Ġaccording": 6517,
      "Ġlibraries": 6518,
      "Ġjumps": 6519,
      "Ġcountryside": 6520,
      "Ġremains": 6521,
      "Ġowners": 6522,
      "Ġrecently": 6523,
      "Ġcatching": 6524,
      "ĠViol": 6525,
      "Ġstret": 6526,
      "Ġstream": 6527,
      "Ġ29": 6528,
      "Ġcellphone": 6529,
      "izzas": 6530,
      "ĠSpain": 6531,
      "Ġsquirre": 6532,
      "rowned": 6533,
      "Ġindoors": 6534,
      "Ġindepend": 6535,
      "Ġdelicate": 6536,
      "Ġburns": 6537,
      "ĠToasters": 6538,
      "Ġsnowman": 6539,
      "shirts": 6540,
      "Ġshelters": 6541,
      "Ġreputation": 6542,
      "Ġtanks": 6543,
      "Ġinsurance": 6544,
      "ĠBird": 6545,
      "Ġlaughter": 6546,
      "ĠAlmost": 6547,
      "ĠAliens": 6548,
      "Ġcapt": 6549,
      "Ġspeaks": 6550,
      "Ġstarts": 6551,
      "Ġstarvation": 6552,
      "Ġcrimes": 6553,
      "Ġsupper": 6554,
      "Ġsources": 6555,
      "Ġkilling": 6556,
      "Ġpreparing": 6557,
      "Ġmagic": 6558,
      "Ġbulbs": 6559,
      "Ġbullets": 6560,
      "Ġlegally": 6561,
      "Ġdestination": 6562,
      "ĠWhite": 6563,
      "Ġsetting": 6564,
      "Ġnecessarily": 6565,
      "Ġattending": 6566,
      "Ġemployers": 6567,
      "Ġinvisible": 6568,
      "Ġcircus": 6569,
      "Ġdigital": 6570,
      "Ġcelebrating": 6571,
      "Ġwalrus": 6572,
      "Ġintellig": 6573,
      "Ġgrape": 6574,
      "Ġrelaxed": 6575,
      "coming": 6576,
      "ificial": 6577,
      "Ġapplies": 6578,
      "Ġengineers": 6579,
      "Ġtripped": 6580,
      "Ġdeveloping": 6581,
      "Ġmuseums": 6582,
      "Ġconnection": 6583,
      "eez": 6584,
      "Ġinterested": 6585,
      "Ġinventions": 6586,
      "Ġchefs": 6587,
      "Ġvegetarians": 6588,
      "Ġlaptops": 6589,
      "ĠGirls": 6590,
      "Ġcamel": 6591,
      "Ġscratched": 6592,
      "Ġcampfire": 6593,
      "Ġcultural": 6594,
      "ĠSteel": 6595,
      "Ġbrave": 6596,
      "Ġvillas": 6597,
      "Ġgraduated": 6598,
      "Ġesc": 6599,
      "Ġfreedom": 6600,
      "Ġacceleration": 6601,
      "ĠPanda": 6602,
      "Ġsecond": 6603,
      "Ġtortoises": 6604,
      "Ġrented": 6605,
      "ĠPhot": 6606,
      "ORNING": 6607,
      "Ġignore": 6608,
      "Ġseaside": 6609,
      "Ġmoisturi": 6610,
      "Ġconsumes": 6611,
      "Ġmessage": 6612,
      "Ġsucking": 6613,
      "Ġpurchased": 6614,
      "ĠDeaf": 6615,
      "Ġmagazines": 6616,
      "ĠPutting": 6617,
      "Ġlens": 6618,
      "Ġblackboards": 6619,
      "Ġmonster": 6620,
      "Ġsubjects": 6621,
      "ICE": 6622,
      "Ġsuffer": 6623,
      "Ġaccommod": 6624,
      "hydr": 6625,
      "ĠZebras": 6626,
      "Ġhorrible": 6627,
      "ĠCollege": 6628,
      "Ġdevices": 6629,
      "Ġmeasured": 6630,
      "Ġmonitor": 6631,
      "Ġannoying": 6632,
      "Ġstrawberries": 6633,
      "Ġmultiple": 6634,
      "Ġstuffed": 6635,
      "ĠLemon": 6636,
      "ĠLemons": 6637,
      "Ġdetermined": 6638,
      "Ġnarrow": 6639,
      "Ġofficers": 6640,
      "ĠParis": 6641,
      "ĠObama": 6642,
      "Ġcrocodile": 6643,
      "Ġtouches": 6644,
      "Ġsofa": 6645,
      "Ġconstruction": 6646,
      "ĠSTONE": 6647,
      "ĠMcDonald": 6648,
      "Ġtourists": 6649,
      "Ġlucy": 6650,
      "Ġghost": 6651,
      "ĠTwo": 6652,
      "Ġappetite": 6653,
      "Ġsurprise": 6654,
      "Ġopponents": 6655,
      "Ġscrubbed": 6656,
      "Ġadvertisements": 6657,
      "Ġcavities": 6658,
      "Ġhibernate": 6659,
      "Ġcrazy": 6660,
      "ĠChocolate": 6661,
      "Ġpermission": 6662,
      "ĠCurtains": 6663,
      "Ġprohibited": 6664,
      "ĠSubmarines": 6665,
      "Ġclerk": 6666,
      "Ġpsychologist": 6667,
      "Ġbouquet": 6668,
      "Ġconsequence": 6669,
      "Ġsafety": 6670,
      "Ġanymore": 6671,
      "Ġcombustion": 6672,
      "ĠExercise": 6673,
      "Ġsuddenly": 6674,
      "Ġdusk": 6675,
      "ĠTornad": 6676,
      "ĠPamela": 6677,
      "ĠCelsius": 6678,
      "ĠMongol": 6679,
      "ĠDavid": 6680,
      "Ġreluctant": 6681,
      "Ġaggressive": 6682,
      "AD": 6683,
      "Hello": 6684,
      "UAL": 6685,
      "aundry": 6686,
      "bie": 6687,
      "cu": 6688,
      "fers": 6689,
      "good": 6690,
      "kins": 6691,
      "looking": 6692,
      "ne": 6693,
      "pir": 6694,
      "rs": 6695,
      "ris": 6696,
      "sighted": 6697,
      "then": 6698,
      "tress": 6699,
      "uing": 6700,
      "via": 6701,
      "ypt": 6702,
      "zard": 6703,
      "zie": 6704,
      "Ġult": 6705,
      "Ġirr": 6706,
      "Ġtar": 6707,
      "Ġtends": 6708,
      "Ġtrim": 6709,
      "Ġalex": 6710,
      "inters": 6711,
      "Ġsum": 6712,
      "Ġsaying": 6713,
      "Ġcher": 6714,
      "Ġcubes": 6715,
      "reo": 6716,
      "ankets": 6717,
      "Ġbon": 6718,
      "Ġbak": 6719,
      "Ġbart": 6720,
      "Ġbacon": 6721,
      "Ġfi": 6722,
      "Ġfif": 6723,
      "Ġfountain": 6724,
      "Ġfancy": 6725,
      "Ġfocus": 6726,
      "Ġfoolish": 6727,
      "Ġfishermen": 6728,
      "Ġpies": 6729,
      "Ġpath": 6730,
      "Ġpush": 6731,
      "Ġpitc": 6732,
      "Ġpuri": 6733,
      "Ġpests": 6734,
      "Ġtoe": 6735,
      "Ġtodd": 6736,
      "leted": 6737,
      "Ġmot": 6738,
      "Ġmol": 6739,
      "Ġmur": 6740,
      "Ġmig": 6741,
      "Ġmacaroni": 6742,
      "atches": 6743,
      "Ġhomes": 6744,
      "Ġhoping": 6745,
      "Ġhorns": 6746,
      "Ġdump": 6747,
      "Ġdictionary": 6748,
      "esome": 6749,
      "othe": 6750,
      "otine": 6751,
      "edio": 6752,
      "Ġlily": 6753,
      "Ġlines": 6754,
      "Ġlaying": 6755,
      "Ġlicked": 6756,
      "Ġovens": 6757,
      "Ġgamble": 6758,
      "ĠToy": 6759,
      "icon": 6760,
      "icag": 6761,
      "icotine": 6762,
      "irty": 6763,
      "ĠIT": 6764,
      "etime": 6765,
      "rob": 6766,
      "ĠAC": 6767,
      "ĠAT": 6768,
      "ĠAm": 6769,
      "ĠAstronaut": 6770,
      "ĠSan": 6771,
      "ĠSen": 6772,
      "ĠSales": 6773,
      "ĠSah": 6774,
      "ĠSOM": 6775,
      "ĠSyl": 6776,
      "ĠHam": 6777,
      "ĠHome": 6778,
      "ĠHens": 6779,
      "ĠHammers": 6780,
      "aded": 6781,
      "olved": 6782,
      "ims": 6783,
      "eling": 6784,
      "Ġrepe": 6785,
      "Ġreward": 6786,
      "Ġreused": 6787,
      "Ġshred": 6788,
      "Ġshowers": 6789,
      "Ġshining": 6790,
      "ĠPE": 6791,
      "ĠPr": 6792,
      "ĠPears": 6793,
      "ĠPupp": 6794,
      "Ġplat": 6795,
      "Ġplumber": 6796,
      "ĠCA": 6797,
      "ĠCrim": 6798,
      "ĠChess": 6799,
      "ĠCricket": 6800,
      "ĠCinemas": 6801,
      "antic": 6802,
      "ĠMercury": 6803,
      "Ġweed": 6804,
      "Ġwhy": 6805,
      "Ġcarn": 6806,
      "ĠWAS": 6807,
      "ĠWorms": 6808,
      "Ġchalk": 6809,
      "Ġchances": 6810,
      "Ġchalle": 6811,
      "Ġrug": 6812,
      "ĠBad": 6813,
      "ĠBub": 6814,
      "Ġspir": 6815,
      "Ġspilled": 6816,
      "Ġspiders": 6817,
      "Ġdrama": 6818,
      "Ġalien": 6819,
      "Ġexcept": 6820,
      "ĠDress": 6821,
      "ĠDead": 6822,
      "ĠDrag": 6823,
      "Ġconce": 6824,
      "Ġherit": 6825,
      "Ġmode": 6826,
      "Ġjan": 6827,
      "Ġcolumn": 6828,
      "Ġenvel": 6829,
      "Ġenrolled": 6830,
      "ĠFore": 6831,
      "ĠEn": 6832,
      "Ġtreated": 6833,
      "ieved": 6834,
      "Ġcatcher": 6835,
      "Ġflammable": 6836,
      "itely": 6837,
      "Ġskating": 6838,
      "Ġgrands": 6839,
      "Ġprosper": 6840,
      "ĠLI": 6841,
      "ĠLaundry": 6842,
      "ĠGh": 6843,
      "ĠGIR": 6844,
      "Ġdem": 6845,
      "Ġornam": 6846,
      "Ġordinary": 6847,
      "ĠJoe": 6848,
      "bled": 6849,
      "ipal": 6850,
      "ĠChicag": 6851,
      "endy": 6852,
      "phoon": 6853,
      "phib": 6854,
      "Ġtracks": 6855,
      "Ġsales": 6856,
      "Ġcoach": 6857,
      "Ġcode": 6858,
      "ĠRo": 6859,
      "ĠRMB": 6860,
      "ĠItal": 6861,
      "Ġhotpot": 6862,
      "Ġcheek": 6863,
      "Ġcheetah": 6864,
      "Ġexplode": 6865,
      "Ġplanned": 6866,
      "Ġscream": 6867,
      "brushes": 6868,
      "Ġgloss": 6869,
      "Ġglands": 6870,
      "izing": 6871,
      "Ġquar": 6872,
      "usted": 6873,
      "Ġiceber": 6874,
      "Ġtableware": 6875,
      "Ġpoles": 6876,
      "Ġtasting": 6877,
      "Ġstereo": 6878,
      "coa": 6879,
      "Ġamphib": 6880,
      "Ġfunctions": 6881,
      "Ġpains": 6882,
      "Ġpainter": 6883,
      "Ġparks": 6884,
      "Ġkindergarten": 6885,
      "ycl": 6886,
      "Ġhunter": 6887,
      "Ġsurren": 6888,
      "Ġrefuel": 6889,
      "Ġovers": 6890,
      "Ġtyphoon": 6891,
      "Ġfits": 6892,
      "Ġexercises": 6893,
      "Ġsweater": 6894,
      "Ġfootballer": 6895,
      "Ġstrange": 6896,
      "Ġstruct": 6897,
      "issor": 6898,
      "Ġmetals": 6899,
      "Ġmetrol": 6900,
      "Ġactive": 6901,
      "Ġsingers": 6902,
      "Ġemits": 6903,
      "ĠShip": 6904,
      "ĠShoe": 6905,
      "Ġacademic": 6906,
      "Ġdiet": 6907,
      "Ġplanting": 6908,
      "Ġforecast": 6909,
      "Ġserv": 6910,
      "versity": 6911,
      "Ġcrisp": 6912,
      "Ġclosest": 6913,
      "Ġbrothers": 6914,
      "ĠThings": 6915,
      "Ġrecipe": 6916,
      "Ġpassing": 6917,
      "weight": 6918,
      "wered": 6919,
      "ĠValentine": 6920,
      "ĠTexas": 6921,
      "Ġcommonly": 6922,
      "Ġsqueeze": 6923,
      "flowers": 6924,
      "ĠFlour": 6925,
      "ĠFloor": 6926,
      "000": 6927,
      "ĠSunny": 6928,
      "Ġburnt": 6929,
      "Ġhearts": 6930,
      "Ġsharpener": 6931,
      "scri": 6932,
      "Ġconsider": 6933,
      "Ġwarfare": 6934,
      "Ġparlor": 6935,
      "Ġpresents": 6936,
      "Ġregions": 6937,
      "ĠJoel": 6938,
      "Ġnearby": 6939,
      "Ġassistance": 6940,
      "Ġequals": 6941,
      "Ġequipped": 6942,
      "ĠWhale": 6943,
      "Ġartificial": 6944,
      "Ġoperating": 6945,
      "Ġbench": 6946,
      "ĠFirefighters": 6947,
      "ĠUsing": 6948,
      "ĠBlankets": 6949,
      "Ġauto": 6950,
      "Ġdishwashing": 6951,
      "ĠFruits": 6952,
      "Ġbait": 6953,
      "Ġridden": 6954,
      "Ġmelted": 6955,
      "Ġprograms": 6956,
      "Ġgrandma": 6957,
      "Ġsigned": 6958,
      "Ġdollar": 6959,
      "ification": 6960,
      "Ġexplod": 6961,
      "ĠMilky": 6962,
      "Ġsmartphones": 6963,
      "ĠUSUAL": 6964,
      "Ġawesome": 6965,
      "Ġincreases": 6966,
      "Ġphysic": 6967,
      "Ġanswered": 6968,
      "ĠFriends": 6969,
      "ĠFridges": 6970,
      "Ġinstruments": 6971,
      "Ġrule": 6972,
      "melet": 6973,
      "Ġringing": 6974,
      "ĠAsians": 6975,
      "Ġchewing": 6976,
      "Ġinterp": 6977,
      "Ġthinner": 6978,
      "Ġmidnight": 6979,
      "ĠNewton": 6980,
      "Ġpregnancy": 6981,
      "Ġpumps": 6982,
      "Ġneighbors": 6983,
      "Ġmistake": 6984,
      "Ġinclude": 6985,
      "Ġlimit": 6986,
      "Ġillegally": 6987,
      "ĠDiamond": 6988,
      "Ġhonor": 6989,
      "ĠIndia": 6990,
      "Ġcomedian": 6991,
      "Ġexpression": 6992,
      "Ġcorrecting": 6993,
      "Ġmoisture": 6994,
      "END": 6995,
      "Ġcosmet": 6996,
      "Ġmessy": 6997,
      "Ġceremon": 6998,
      "OOK": 6999,
      "Ġfailure": 7000,
      "ĠPeanut": 7001,
      "Ġshooting": 7002,
      "ĠConcrete": 7003,
      "ĠWorkers": 7004,
      "ĠButterflies": 7005,
      "Ġdivorce": 7006,
      "Ġlevels": 7007,
      "Ġblossom": 7008,
      "Ġblossoms": 7009,
      "Ġoutdoor": 7010,
      "ĠMirror": 7011,
      "Ġresource": 7012,
      "Ġannoyed": 7013,
      "Ġexcessively": 7014,
      "Ġworthless": 7015,
      "Ġpassenger": 7016,
      "Ġharvested": 7017,
      "Ġplugged": 7018,
      "ĠBuild": 7019,
      "Ġofficer": 7020,
      "Ġmagnif": 7021,
      "Ġsymb": 7022,
      "Ġdocument": 7023,
      "Ġparticipate": 7024,
      "Ġrectangle": 7025,
      "ĠSweat": 7026,
      "raviolet": 7027,
      "Ġchannels": 7028,
      "Ġpatterns": 7029,
      "ĠSchools": 7030,
      "Ġlemons": 7031,
      "Ġtechnology": 7032,
      "ĠGuns": 7033,
      "Ġloyal": 7034,
      "Ġstripes": 7035,
      "Ġmosquitoes": 7036,
      "Ġinjection": 7037,
      "Ġokay": 7038,
      "Ġbubbles": 7039,
      "Ġchemistry": 7040,
      "Ġdisturb": 7041,
      "Ġathletic": 7042,
      "Ġeventually": 7043,
      "Ġstimulant": 7044,
      "Ġperfume": 7045,
      "ĠMagma": 7046,
      "ĠDaniel": 7047,
      "ĠNormal": 7048,
      "Ġdiscovered": 7049,
      "Ġdiscipline": 7050,
      "Ġissue": 7051,
      "Ġprincipal": 7052,
      "Ġextinguished": 7053,
      "Ġfigure": 7054,
      "ĠMachines": 7055,
      "Ġclinic": 7056,
      "Ġconversation": 7057,
      "Ġunicorn": 7058,
      "Ġpicnic": 7059,
      "Ġketchup": 7060,
      "Ġtidy": 7061,
      "Ġreleased": 7062,
      "ĠLotus": 7063,
      "ĠLeopards": 7064,
      "Ġcomplain": 7065,
      "ĠTornadoes": 7066,
      "ĠMongolia": 7067,
      "Ġtrimmed": 7068,
      "Ġbonfire": 7069,
      "Ġbakery": 7070,
      "Ġbartender": 7071,
      "Ġpitcher": 7072,
      "Ġpurif": 7073,
      "ĠToyota": 7074,
      "ĠSahara": 7075,
      "ĠSylvia": 7076,
      "Ġchalleng": 7077,
      "Ġenvelope": 7078,
      "ĠGIRL": 7079,
      "ĠChicago": 7080,
      "Ġamphibians": 7081,
      "ĠUSUALLY": 7082,
      "18": 7083,
      "Bron": 7084,
      "ED": 7085,
      "FF": 7086,
      "GE": 7087,
      "LE": 7088,
      "OS": 7089,
      "The": 7090,
      "ags": 7091,
      "aven": 7092,
      "cakes": 7093,
      "cycling": 7094,
      "dri": 7095,
      "ecut": 7096,
      "gl": 7097,
      "gle": 7098,
      "ik": 7099,
      "iant": 7100,
      "ji": 7101,
      "kong": 7102,
      "nal": 7103,
      "ointed": 7104,
      "son": 7105,
      "tuce": 7106,
      "va": 7107,
      "vable": 7108,
      "yle": 7109,
      "Ġid": 7110,
      "Ġident": 7111,
      "Ġtests": 7112,
      "Ġtadp": 7113,
      "inhab": 7114,
      "Ġsore": 7115,
      "Ġsank": 7116,
      "Ġcast": 7117,
      "Ġcuc": 7118,
      "Ġwing": 7119,
      "Ġwolf": 7120,
      "Ġfirm": 7121,
      "Ġpent": 7122,
      "Ġpers": 7123,
      "Ġpipes": 7124,
      "Ġtot": 7125,
      "Ġment": 7126,
      "Ġmant": 7127,
      "Ġmarks": 7128,
      "Ġhire": 7129,
      "Ġdy": 7130,
      "Ġdom": 7131,
      "Ġdrow": 7132,
      "Ġdating": 7133,
      "Ġdull": 7134,
      "Ġdawn": 7135,
      "orld": 7136,
      "ormer": 7137,
      "organ": 7138,
      "aration": 7139,
      "Ġinf": 7140,
      "Ġinh": 7141,
      "itness": 7142,
      "Ġnets": 7143,
      "Ġlakes": 7144,
      "Ġom": 7145,
      "Ġomelet": 7146,
      "Ġcandles": 7147,
      "ĠTall": 7148,
      "ĠTract": 7149,
      "ĠTuna": 7150,
      "ĠTelling": 7151,
      "Ġeither": 7152,
      "ican": 7153,
      "iches": 7154,
      "Ġoffe": 7155,
      "Ġbee": 7156,
      "Ġhen": 7157,
      "Ġheaters": 7158,
      "aylor": 7159,
      "ette": 7160,
      "ĠAcc": 7161,
      "Ġstink": 7162,
      "Ġstates": 7163,
      "ĠSold": 7164,
      "ĠSew": 7165,
      "ĠHon": 7166,
      "ĠHur": 7167,
      "ĠHong": 7168,
      "ĠHams": 7169,
      "ading": 7170,
      "rif": 7171,
      "ghters": 7172,
      "olds": 7173,
      "Ġhaven": 7174,
      "Ġhabits": 7175,
      "Ġyouth": 7176,
      "Ġreact": 7177,
      "Ġrept": 7178,
      "Ġreject": 7179,
      "Ġshout": 7180,
      "Ġshaving": 7181,
      "Ġshiny": 7182,
      "Ġshaved": 7183,
      "owledge": 7184,
      "ĠHelen": 7185,
      "ĠPit": 7186,
      "ĠPrim": 7187,
      "Ġplus": 7188,
      "osure": 7189,
      "iding": 7190,
      "ĠCow": 7191,
      "umin": 7192,
      "ĠMill": 7193,
      "ĠMilitary": 7194,
      "ĠMAD": 7195,
      "Ġatoms": 7196,
      "Ġweeds": 7197,
      "Ġwhose": 7198,
      "anding": 7199,
      "ĠWay": 7200,
      "ĠWest": 7201,
      "ĠWatches": 7202,
      "ĠWorld": 7203,
      "Ġchase": 7204,
      "Ġchamp": 7205,
      "Ġchasing": 7206,
      "Ġrate": 7207,
      "ulted": 7208,
      "style": 7209,
      "ift": 7210,
      "ĠBed": 7211,
      "ĠBus": 7212,
      "ĠBig": 7213,
      "ĠBats": 7214,
      "ĠBeds": 7215,
      "Ġframe": 7216,
      "Ġfrank": 7217,
      "Ġseagull": 7218,
      "Ġkit": 7219,
      "Ġled": 7220,
      "Ġmang": 7221,
      "Ġmans": 7222,
      "Ġsphe": 7223,
      "Ġspends": 7224,
      "Ġdrum": 7225,
      "Ġexecut": 7226,
      "ĠDJ": 7227,
      "ĠDirt": 7228,
      "ĠDirty": 7229,
      "Ġconcer": 7230,
      "Ġrow": 7231,
      "Ġbuoy": 7232,
      "udd": 7233,
      "ĠFin": 7234,
      "ĠFan": 7235,
      "Ġsmiles": 7236,
      "ĠEag": 7237,
      "Ġvess": 7238,
      "Ġvict": 7239,
      "Ġune": 7240,
      "Ġunf": 7241,
      "Ġunknown": 7242,
      "isted": 7243,
      "Ġskirts": 7244,
      "Ġoutlet": 7245,
      "Ġafterwards": 7246,
      "enses": 7247,
      "ĠLet": 7248,
      "ĠLaptop": 7249,
      "ĠGood": 7250,
      "ĠGrapes": 7251,
      "ĠGrav": 7252,
      "Ġbrew": 7253,
      "Ġdefe": 7254,
      "Ġdeem": 7255,
      "Ġorbits": 7256,
      "ĠJud": 7257,
      "ĠJust": 7258,
      "ĠJump": 7259,
      "ĠJason": 7260,
      "ĠChur": 7261,
      "Ġbookcase": 7262,
      "Ġtrue": 7263,
      "Ġhousehold": 7264,
      "Ġlover": 7265,
      "Ġcoats": 7266,
      "ĠRiver": 7267,
      "Ġstudies": 7268,
      "ĠNO": 7269,
      "ĠNose": 7270,
      "Ġdifference": 7271,
      "ĠOR": 7272,
      "ĠOxygen": 7273,
      "Ġimage": 7274,
      "Ġabilities": 7275,
      "portation": 7276,
      "athers": 7277,
      "Ġhairstyle": 7278,
      "Ġexposure": 7279,
      "Ġscale": 7280,
      "Ġscenic": 7281,
      "Ġscenes": 7282,
      "armful": 7283,
      "airy": 7284,
      "Ġrunner": 7285,
      "Ġtrap": 7286,
      "yscrapers": 7287,
      "Ġearphones": 7288,
      "Ġearned": 7289,
      "emperature": 7290,
      "Ġglued": 7291,
      "Ġeyel": 7292,
      "berries": 7293,
      "Ġqueen": 7294,
      "Ġwindless": 7295,
      "Ġpoop": 7296,
      "Ġadvent": 7297,
      "Ġprefers": 7298,
      "Ġhighly": 7299,
      "Ġmusicians": 7300,
      "ssed": 7301,
      "Ġpetroleum": 7302,
      "orks": 7303,
      "ĠUmb": 7304,
      "Ġovertime": 7305,
      "Ġcommute": 7306,
      "Ġslide": 7307,
      "Ġattach": 7308,
      "Ġattacks": 7309,
      "Ġattached": 7310,
      "Ġunderwear": 7311,
      "Ġheadphone": 7312,
      "Ġcontam": 7313,
      "Ġexercising": 7314,
      "Ġboxing": 7315,
      "ĠKim": 7316,
      "Ġliter": 7317,
      "ĠTomorrow": 7318,
      "Ġinstant": 7319,
      "Ġsituation": 7320,
      "Ġdiving": 7321,
      "Ġdiary": 7322,
      "ĠTVs": 7323,
      "Ġtalks": 7324,
      "umbing": 7325,
      "levant": 7326,
      "Ġcrop": 7327,
      "Ġfinance": 7328,
      "ĠThun": 7329,
      "Ġrecords": 7330,
      "ĠClass": 7331,
      "Ġgarages": 7332,
      "Ġshortcom": 7333,
      "Ġsmelling": 7334,
      "ĠBeef": 7335,
      "Ġsubmar": 7336,
      "Ġsubscri": 7337,
      "Ġenvironments": 7338,
      "Ġrefrigerated": 7339,
      "Ġdressing": 7340,
      "Ġsurfed": 7341,
      "Ġstrongly": 7342,
      "ĠToile": 7343,
      "ĠToday": 7344,
      "Ġlocate": 7345,
      "Ġlocation": 7346,
      "Ġbowls": 7347,
      "rellas": 7348,
      "ĠDrugs": 7349,
      "Ġchecks": 7350,
      "Ġgeneral": 7351,
      "Ġgenerate": 7352,
      "Ġgenerates": 7353,
      "Ġ36": 7354,
      "Ġvisible": 7355,
      "ĠComic": 7356,
      "cloth": 7357,
      "Ġcaps": 7358,
      "Ġlaws": 7359,
      "ĠSnake": 7360,
      "Ġconditioners": 7361,
      "Ġabsent": 7362,
      "raps": 7363,
      "Ġexisted": 7364,
      "Ġcircul": 7365,
      "Ġclearance": 7366,
      "friendly": 7367,
      "derstorm": 7368,
      "Ġcommunity": 7369,
      "ĠBrushing": 7370,
      "ĠLeBron": 7371,
      "Ġcombing": 7372,
      "Ġdrops": 7373,
      "Ġmattress": 7374,
      "Ġsignal": 7375,
      "ĠBox": 7376,
      "Ġinjury": 7377,
      "ĠCarrots": 7378,
      "ATE": 7379,
      "ĠDrivers": 7380,
      "Ġcontrolled": 7381,
      "Ġphysically": 7382,
      "Ġfurry": 7383,
      "Ġfreezes": 7384,
      "Ġprofessor": 7385,
      "Ġprofessors": 7386,
      "Ġimprovement": 7387,
      "ĠSalads": 7388,
      "Ġ40": 7389,
      "Ġhanging": 7390,
      "ĠAnimal": 7391,
      "ĠCheetah": 7392,
      "Ġcultiv": 7393,
      "Ġmembers": 7394,
      "Ġbrakes": 7395,
      "Ġpeppers": 7396,
      "Ġrecorded": 7397,
      "Ġgraduation": 7398,
      "Ġgraduates": 7399,
      "Ġannounced": 7400,
      "Ġvarious": 7401,
      "ĠElectron": 7402,
      "Ġscarce": 7403,
      "Ġaccelerate": 7404,
      "Ġaccelerator": 7405,
      "Ġexhibit": 7406,
      "Ġexhibits": 7407,
      "Ġadvanced": 7408,
      "Ġhurry": 7409,
      "Ġdecoration": 7410,
      "Ġresponse": 7411,
      "ĠPhones": 7412,
      "Ġchurches": 7413,
      "Ġpollute": 7414,
      "Ġtraveled": 7415,
      "Ġblooming": 7416,
      "Ġmassage": 7417,
      "Ġrobot": 7418,
      "Ġspecific": 7419,
      "Ġdigestive": 7420,
      "ENT": 7421,
      "Ġbouncing": 7422,
      "Ġconsumed": 7423,
      "ĠSkyscrapers": 7424,
      "Ġradios": 7425,
      "Ġdeposit": 7426,
      "ĠPeeling": 7427,
      "Ġqualities": 7428,
      "Ġconfident": 7429,
      "Ġmillions": 7430,
      "Ġobserve": 7431,
      "Ġpacked": 7432,
      "ĠMinors": 7433,
      "ĠMineral": 7434,
      "Ġkangaroos": 7435,
      "Ġsunbathe": 7436,
      "Ġfluid": 7437,
      "Ġcouples": 7438,
      "Ġpredict": 7439,
      "ĠSoap": 7440,
      "Ġcheerful": 7441,
      "Ġ2018": 7442,
      "ĠUniversity": 7443,
      "Ġautomobiles": 7444,
      "Ġphotosynthesis": 7445,
      "Ġfarther": 7446,
      "ĠMosquito": 7447,
      "ĠGlob": 7448,
      "Ġpromised": 7449,
      "ĠONE": 7450,
      "Ġdetermines": 7451,
      "ittens": 7452,
      "Ġprescribed": 7453,
      "Ġoccupy": 7454,
      "Ġpleasure": 7455,
      "Ġpalm": 7456,
      "ĠSinging": 7457,
      "ĠRainbow": 7458,
      "Ġhydrant": 7459,
      "Ġrectangular": 7460,
      "ĠPatients": 7461,
      "Ġchannel": 7462,
      "Ġdissolve": 7463,
      "Ġgeese": 7464,
      "Ġeagle": 7465,
      "Ġeagles": 7466,
      "ĠAdding": 7467,
      "Ġupdated": 7468,
      "Ġbreasts": 7469,
      "Ġportable": 7470,
      "ĠWheel": 7471,
      "Ġexchanged": 7472,
      "ĠDesks": 7473,
      "Ġashamed": 7474,
      "Ġconcentrate": 7475,
      "igeons": 7476,
      "Ġaeropl": 7477,
      "Ġanemone": 7478,
      "ĠAutom": 7479,
      "ĠStock": 7480,
      "ĠDRIN": 7481,
      "ĠKoreans": 7482,
      "Ġvolunteer": 7483,
      "Ġcaterpillars": 7484,
      "Ġlectures": 7485,
      "Ġventilate": 7486,
      "Ġempty": 7487,
      "Ġperiod": 7488,
      "ĠHelicopters": 7489,
      "Ġadministrative": 7490,
      "books": 7491,
      "Ġjoyful": 7492,
      "ĠBathtubs": 7493,
      "ĠMicrowave": 7494,
      "Ġfabricated": 7495,
      "Ġsensitive": 7496,
      "ĠTHAN": 7497,
      "Ġforbidden": 7498,
      "ĠSuperm": 7499,
      "Ġdecrease": 7500,
      "Ġapplication": 7501,
      "Ġdefinitely": 7502,
      "ĠCanada": 7503,
      "ĠMotorcycles": 7504,
      "Ġfashionable": 7505,
      "Ġcartoon": 7506,
      "Ġswitched": 7507,
      "Ġflamingo": 7508,
      "ĠListening": 7509,
      "ĠViolins": 7510,
      "Ġaccommodate": 7511,
      "Ġultraviolet": 7512,
      "Ġtarget": 7513,
      "Ġmigrate": 7514,
      "ĠAstronauts": 7515,
      "ĠSalesmen": 7516,
      "Ġshredder": 7517,
      "Ġspirit": 7518,
      "ĠForest": 7519,
      "Ġgrandson": 7520,
      "Ġdemand": 7521,
      "Ġsalesmen": 7522,
      "Ġservices": 7523,
      "Ġcrispy": 7524,
      "Ġsymbol": 7525,
      "Ġdrowning": 7526,
      "Ġomelette": 7527,
      "Ġoffered": 7528,
      "ĠSoldiers": 7529,
      "ĠHongkong": 7530,
      "Ġrejected": 7531,
      "ĠMillions": 7532,
      "Ġdeemed": 7533,
      "ĠUmbrellas": 7534,
      "Ġshortcomings": 7535,
      "Ġsubmarine": 7536,
      "Ġaeroplane": 7537,
      "35": 7538,
      "BA": 7539,
      "DAY": 7540,
      "Fi": 7541,
      "It": 7542,
      "VES": 7543,
      "aj": 7544,
      "back": 7545,
      "des": 7546,
      "eing": 7547,
      "eled": 7548,
      "eze": 7549,
      "eared": 7550,
      "fry": 7551,
      "free": 7552,
      "gy": 7553,
      "gor": 7554,
      "giving": 7555,
      "hu": 7556,
      "hin": 7557,
      "hor": 7558,
      "hance": 7559,
      "hole": 7560,
      "iot": 7561,
      "lam": 7562,
      "lif": 7563,
      "long": 7564,
      "lord": 7565,
      "mi": 7566,
      "mill": 7567,
      "mber": 7568,
      "over": 7569,
      "oam": 7570,
      "oving": 7571,
      "ps": 7572,
      "pow": 7573,
      "racts": 7574,
      "sing": 7575,
      "temperature": 7576,
      "vin": 7577,
      "vant": 7578,
      "worth": 7579,
      "yms": 7580,
      "yram": 7581,
      "zes": 7582,
      "Ġtight": 7583,
      "Ġtied": 7584,
      "Ġastr": 7585,
      "infect": 7586,
      "Ġsou": 7587,
      "Ġsack": 7588,
      "Ġcy": 7589,
      "Ġcough": 7590,
      "rel": 7591,
      "angh": 7592,
      "Ġwise": 7593,
      "Ġwiz": 7594,
      "Ġwax": 7595,
      "Ġwider": 7596,
      "Ġwestern": 7597,
      "ero": 7598,
      "erves": 7599,
      "Ġbless": 7600,
      "isters": 7601,
      "ony": 7602,
      "Ġfic": 7603,
      "Ġfals": 7604,
      "Ġfellow": 7605,
      "Ġpours": 7606,
      "Ġpages": 7607,
      "Ġtoxic": 7608,
      "Ġtossed": 7609,
      "Ġmand": 7610,
      "Ġmount": 7611,
      "Ġmales": 7612,
      "Ġmerch": 7613,
      "Ġmaj": 7614,
      "att": 7615,
      "atted": 7616,
      "Ġhatch": 7617,
      "Ġdumb": 7618,
      "oral": 7619,
      "otam": 7620,
      "otten": 7621,
      "arn": 7622,
      "arr": 7623,
      "arium": 7624,
      "Ġine": 7625,
      "Ġinhab": 7626,
      "enails": 7627,
      "itious": 7628,
      "edding": 7629,
      "Ġlinen": 7630,
      "Ġgap": 7631,
      "Ġgate": 7632,
      "ĠTed": 7633,
      "ĠTur": 7634,
      "ĠTail": 7635,
      "ĠTRE": 7636,
      "ĠTanks": 7637,
      "ĠTitan": 7638,
      "Ġec": 7639,
      "Ġeclip": 7640,
      "omm": 7641,
      "ilds": 7642,
      "ilizer": 7643,
      "opotam": 7644,
      "Ġheal": 7645,
      "Ġonions": 7646,
      "iring": 7647,
      "ĠIts": 7648,
      "etan": 7649,
      "Ġfort": 7650,
      "Ġforms": 7651,
      "accoons": 7652,
      "ĠAp": 7653,
      "ĠAud": 7654,
      "Ġstood": 7655,
      "Ġstab": 7656,
      "Ġstack": 7657,
      "Ġstamp": 7658,
      "ĠSer": 7659,
      "ĠSus": 7660,
      "ĠSound": 7661,
      "ĠHat": 7662,
      "ĠHol": 7663,
      "advant": 7664,
      "utd": 7665,
      "uted": 7666,
      "imal": 7667,
      "Ġrecreation": 7668,
      "ĠHeav": 7669,
      "ĠPies": 7670,
      "ĠPants": 7671,
      "ĠPump": 7672,
      "ĠPots": 7673,
      "ĠPlease": 7674,
      "ĠPUT": 7675,
      "ĠPesticides": 7676,
      "ĠPizzas": 7677,
      "Ġpliers": 7678,
      "raper": 7679,
      "ĠCans": 7680,
      "ĠCamp": 7681,
      "ĠCactus": 7682,
      "ĠCAR": 7683,
      "allows": 7684,
      "umming": 7685,
      "ĠMex": 7686,
      "Ġneat": 7687,
      "Ġcarbo": 7688,
      "Ġcarrot": 7689,
      "Ġsoaked": 7690,
      "abul": 7691,
      "Ġwaters": 7692,
      "ĠWr": 7693,
      "ĠWool": 7694,
      "ĠWash": 7695,
      "ĠWriting": 7696,
      "ĠWestern": 7697,
      "ĠWedding": 7698,
      "Ġchlor": 7699,
      "Ġrank": 7700,
      "Ġrushed": 7701,
      "Ġroos": 7702,
      "Ġrising": 7703,
      "cember": 7704,
      "iforn": 7705,
      "ifacts": 7706,
      "Ġclocks": 7707,
      "Ġcliff": 7708,
      "ĠBre": 7709,
      "ĠBull": 7710,
      "ĠBrown": 7711,
      "ĠBowl": 7712,
      "ĠBRE": 7713,
      "ĠBanks": 7714,
      "ĠBAB": 7715,
      "ĠBudd": 7716,
      "Ġfracture": 7717,
      "Ġtele": 7718,
      "Ġallev": 7719,
      "Ġexit": 7720,
      "ĠDem": 7721,
      "ĠDurian": 7722,
      "Ġcombs": 7723,
      "Ġworm": 7724,
      "Ġworry": 7725,
      "Ġjar": 7726,
      "Ġjams": 7727,
      "Ġjello": 7728,
      "quets": 7729,
      "Ġnoble": 7730,
      "cked": 7731,
      "Ġboots": 7732,
      "Ġdonuts": 7733,
      "Ġencl": 7734,
      "Ġenhance": 7735,
      "Ġbug": 7736,
      "Ġbuilds": 7737,
      "ĠFu": 7738,
      "ĠFace": 7739,
      "ĠFred": 7740,
      "ĠFresh": 7741,
      "ĠFOOD": 7742,
      "Ġsmash": 7743,
      "Ġsmiling": 7744,
      "ĠEaster": 7745,
      "Ġvirt": 7746,
      "abled": 7747,
      "Ġgoodbye": 7748,
      "Ġblows": 7749,
      "Ġswab": 7750,
      "Ġunw": 7751,
      "Ġuncle": 7752,
      "Ġunne": 7753,
      "Ġflows": 7754,
      "Ġfluff": 7755,
      "Ġfright": 7756,
      "Ġbrushing": 7757,
      "Ġbrushes": 7758,
      "enser": 7759,
      "ares": 7760,
      "Ġgras": 7761,
      "ĠLove": 7762,
      "ĠLots": 7763,
      "ĠLaz": 7764,
      "ĠGoo": 7765,
      "ĠGra": 7766,
      "Ġbreeze": 7767,
      "resp": 7768,
      "Ġpron": 7769,
      "Ġpruning": 7770,
      "ĠJan": 7771,
      "ĠJelly": 7772,
      "ipul": 7773,
      "ĠChalk": 7774,
      "Ġcompon": 7775,
      "Ġtrace": 7776,
      "ague": 7777,
      "Ġarch": 7778,
      "Ġrib": 7779,
      "Ġhanded": 7780,
      "Ġhandles": 7781,
      "Ġcoop": 7782,
      "Ġcocoa": 7783,
      "ĠRod": 7784,
      "ĠRotten": 7785,
      "ĠRaccoons": 7786,
      "venge": 7787,
      "ĠStat": 7788,
      "ĠStraw": 7789,
      "ĠNorthern": 7790,
      "ĠNBA": 7791,
      "Ġofficial": 7792,
      "Ġappropriate": 7793,
      "ĠOvens": 7794,
      "ĠOutd": 7795,
      "Ġswimmers": 7796,
      "ueled": 7797,
      "Ġgrease": 7798,
      "Ġtraged": 7799,
      "Ġfireplace": 7800,
      "oots": 7801,
      "Ġdesks": 7802,
      "actors": 7803,
      "Ġrestroom": 7804,
      "Ġnights": 7805,
      "Ġdisinfect": 7806,
      "Ġdisadvant": 7807,
      "Ġnewborn": 7808,
      "Ġtablets": 7809,
      "Ġpolicy": 7810,
      "Ġadj": 7811,
      "teen": 7812,
      "Ġsnail": 7813,
      "Ġhighways": 7814,
      "ricane": 7815,
      "Ġpartner": 7816,
      "erted": 7817,
      "Ġbabys": 7818,
      "Ġbaboons": 7819,
      "ĠPlan": 7820,
      "ĠPlant": 7821,
      "ĠPlumbers": 7822,
      "umption": 7823,
      "boys": 7824,
      "Ġhandsome": 7825,
      "Ġrefused": 7826,
      "Ġproduced": 7827,
      "Ġbasketballs": 7828,
      "Ġreliable": 7829,
      "Ġmustard": 7830,
      "Ġparent": 7831,
      "Ġzone": 7832,
      "Ġzero": 7833,
      "Ġsands": 7834,
      "ĠInk": 7835,
      "Ġtyping": 7836,
      "Ġmarkets": 7837,
      "Ġcontents": 7838,
      "Ġsweated": 7839,
      "Ġrocking": 7840,
      "ĠKangar": 7841,
      "ĠKilling": 7842,
      "Ġfootballs": 7843,
      "Ġprotected": 7844,
      "ĠWhenever": 7845,
      "Ġbathed": 7846,
      "Ġsolitary": 7847,
      "Ġpatrol": 7848,
      "Ġpatience": 7849,
      "Ġemails": 7850,
      "ocabul": 7851,
      "Ġedge": 7852,
      "Ġdelay": 7853,
      "Ġdelight": 7854,
      "cessary": 7855,
      "Ġexamined": 7856,
      "Ġtemperatures": 7857,
      "ĠShoot": 7858,
      "ĠShangh": 7859,
      "Ġcalling": 7860,
      "Ġpotat": 7861,
      "Ġcritic": 7862,
      "Ġcloser": 7863,
      "Ġclosing": 7864,
      "Ġrecording": 7865,
      "Ġrecalled": 7866,
      "Ġrecomm": 7867,
      "Ġstreets": 7868,
      "ĠTeeth": 7869,
      "ĠTelevisions": 7870,
      "Ġstops": 7871,
      "Ġsuits": 7872,
      "Ġshowed": 7873,
      "Ġshortage": 7874,
      "cony": 7875,
      "Ġcellar": 7876,
      "ĠBeaches": 7877,
      "Ġshowering": 7878,
      "Ġgradually": 7879,
      "Ġbreathes": 7880,
      "Ġdecide": 7881,
      "ĠSpaceship": 7882,
      "ĠSpanish": 7883,
      "Ġforests": 7884,
      "fortun": 7885,
      "Ġindic": 7886,
      "Ġsprout": 7887,
      "Ġdistant": 7888,
      "Ġtower": 7889,
      "ĠStudy": 7890,
      "ĠMonday": 7891,
      "Ġalcoholic": 7892,
      "ĠFishing": 7893,
      "Ġinserted": 7894,
      "ĠEarphones": 7895,
      "Ġsharpening": 7896,
      "Ġmovement": 7897,
      "Ġconsumption": 7898,
      "Ġparach": 7899,
      "Ġpayment": 7900,
      "Ġspeakers": 7901,
      "Ġpigments": 7902,
      "Ġthrows": 7903,
      "Ġvideog": 7904,
      "Ġmineral": 7905,
      "Ġdestr": 7906,
      "ĠWhile": 7907,
      "Ġartifacts": 7908,
      "Ġdepending": 7909,
      "Ġchopped": 7910,
      "ĠBlood": 7911,
      "Ġemployer": 7912,
      "ĠLee": 7913,
      "Ġinvite": 7914,
      "Ġcorner": 7915,
      "Ġprogramm": 7916,
      "Ġcelebrates": 7917,
      "Ġtouching": 7918,
      "ĠTrash": 7919,
      "Ġhabitat": 7920,
      "Ġnecks": 7921,
      "Ġcostlier": 7922,
      "Ġtaxes": 7923,
      "Ġbenefit": 7924,
      "iences": 7925,
      "ucted": 7926,
      "Ġdental": 7927,
      "Ġcourage": 7928,
      "Ġbalcony": 7929,
      "Ġadmission": 7930,
      "Ġbusinessman": 7931,
      "Ġacidity": 7932,
      "Ġcustomer": 7933,
      "Ġenemies": 7934,
      "Ġlifting": 7935,
      "Ġlifetime": 7936,
      "ĠCheating": 7937,
      "Ġimmoral": 7938,
      "Ġmicroorgan": 7939,
      "Ġsending": 7940,
      "Ġinformal": 7941,
      "ĠSwords": 7942,
      "ĠNews": 7943,
      "Ġvillages": 7944,
      "Ġsmoothies": 7945,
      "Ġsmoothie": 7946,
      "ĠButchers": 7947,
      "Ġsusan": 7948,
      "ĠDolphin": 7949,
      "pective": 7950,
      "Ġhonored": 7951,
      "Ġhurricane": 7952,
      "Ġdecorations": 7953,
      "Ġresponsibility": 7954,
      "Ġracer": 7955,
      "Ġracing": 7956,
      "ĠGiraffe": 7957,
      "ĠModern": 7958,
      "Ġrecycling": 7959,
      "Ġuglier": 7960,
      "Ġhippos": 7961,
      "Ġstrengthen": 7962,
      "Ġsunset": 7963,
      "Ġ1000": 7964,
      "Ġkeyboards": 7965,
      "Ġkissed": 7966,
      "Ġpractices": 7967,
      "ĠFootballs": 7968,
      "ĠVegetable": 7969,
      "panied": 7970,
      "Ġcopper": 7971,
      "ĠBathrooms": 7972,
      "Ġarrive": 7973,
      "Ġlogger": 7974,
      "Ġdisliked": 7975,
      "ĠPetroleum": 7976,
      "ĠCaliforn": 7977,
      "Ġreviews": 7978,
      "Ġobsess": 7979,
      "Ġhidden": 7980,
      "Ġsunburn": 7981,
      "Ġaccompanied": 7982,
      "ĠToothpaste": 7983,
      "ĠToothbrushes": 7984,
      "Ġhoriz": 7985,
      "Ġbeginning": 7986,
      "Ġfrequent": 7987,
      "ĠRestaurants": 7988,
      "Ġgriff": 7989,
      "ĠSloth": 7990,
      "ĠBottle": 7991,
      "ĠSpeakers": 7992,
      "Ġdispenser": 7993,
      "Ġilluminates": 7994,
      "Ġprescription": 7995,
      "Ġpedestrians": 7996,
      "ĠMovies": 7997,
      "ĠSitting": 7998,
      "ĠHAIR": 7999,
      "Ġflavors": 8000,
      "Ġpeeled": 8001,
      "Ġerasers": 8002,
      "Ġexhaust": 8003,
      "Ġexhausted": 8004,
      "Ġherbivores": 8005,
      "Ġcrocodiles": 8006,
      "Ġtouched": 8007,
      "Ġreturn": 8008,
      "Ġsofter": 8009,
      "ĠBathing": 8010,
      "Ġconstructed": 8011,
      "ĠCharging": 8012,
      "Ġdisappointed": 8013,
      "Ġindulge": 8014,
      "ĠSTONES": 8015,
      "ĠMcDonalds": 8016,
      "Ġgained": 8017,
      "ĠPiano": 8018,
      "ĠWindows": 8019,
      "Ġlemur": 8020,
      "Ġflashlight": 8021,
      "Ġupdating": 8022,
      "Ġloyalty": 8023,
      "ĠIslam": 8024,
      "Ġthunder": 8025,
      "Ġthunderstorm": 8026,
      "Ġexchange": 8027,
      "Ġconstant": 8028,
      "ĠGetting": 8029,
      "ĠOrdinary": 8030,
      "Ġexpected": 8031,
      "Ġconcentr": 8032,
      "Ġowls": 8033,
      "Ġstraight": 8034,
      "ĠNeedles": 8035,
      "Ġaquarium": 8036,
      "Ġcasual": 8037,
      "Ġeconomy": 8038,
      "ĠPools": 8039,
      "ĠMedical": 8040,
      "Ġtreadmill": 8041,
      "Ġsculpture": 8042,
      "Ġoccasions": 8043,
      "ĠSquirrels": 8044,
      "Ġeliminate": 8045,
      "Ġqualified": 8046,
      "Ġboobs": 8047,
      "Ġskyscraper": 8048,
      "conditioner": 8049,
      "Ġphenomenon": 8050,
      "Ġinternational": 8051,
      "Ġwhisky": 8052,
      "Ġprevious": 8053,
      "Ġamazing": 8054,
      "Ġproposal": 8055,
      "Ġtriangular": 8056,
      "Ġhumidity": 8057,
      "misphere": 8058,
      "Ġurine": 8059,
      "Ġfertilizer": 8060,
      "Ġhomosex": 8061,
      "Ġdensity": 8062,
      "Ġdipl": 8063,
      "Ġelder": 8064,
      "ĠRobots": 8065,
      "Ġapproval": 8066,
      "Ġpeaceful": 8067,
      "Ġcaptured": 8068,
      "hydrates": 8069,
      "ĠBubbles": 8070,
      "Ġconceive": 8071,
      "ĠLIKE": 8072,
      "Ġornamental": 8073,
      "ĠRoad": 8074,
      "yclists": 8075,
      "Ġsurrendered": 8076,
      "Ġexploded": 8077,
      "driver": 8078,
      "inhabited": 8079,
      "Ġcucumber": 8080,
      "Ġpentagon": 8081,
      "Ġperspective": 8082,
      "Ġmentally": 8083,
      "Ġdomestic": 8084,
      "Ġreptiles": 8085,
      "Ġchampion": 8086,
      "ĠJumping": 8087,
      "Ġadventure": 8088,
      "Ġcontaminated": 8089,
      "Ġliterature": 8090,
      "ĠToilet": 8091,
      "ĠStocks": 8092,
      "iotic": 8093,
      "powder": 8094,
      "Ġficus": 8095,
      "Ġfalse": 8096,
      "ĠTitanic": 8097,
      "opotamus": 8098,
      "ĠHeavy": 8099,
      "Ġallevi": 8100,
      "ĠDemocr": 8101,
      "Ġenclosed": 8102,
      "Ġunnecessary": 8103,
      "Ġtragedy": 8104,
      "ocabulary": 8105,
      "ĠShanghai": 8106,
      "ĠCalifornia": 8107,
      "!\",": 8108,
      "++": 8109,
      ".\"": 8110,
      "34": 8111,
      "700": 8112,
      "AUR": 8113,
      "BQ": 8114,
      "CR": 8115,
      "DP": 8116,
      "DY": 8117,
      "FTER": 8118,
      "IEND": 8119,
      "KEN": 8120,
      "MS": 8121,
      "OAT": 8122,
      "TV": 8123,
      "Tub": 8124,
      "WS": 8125,
      "aun": 8126,
      "ael": 8127,
      "aired": 8128,
      "aque": 8129,
      "bal": 8130,
      "bly": 8131,
      "bands": 8132,
      "bells": 8133,
      "ca": 8134,
      "cook": 8135,
      "cones": 8136,
      "coon": 8137,
      "ciss": 8138,
      "caps": 8139,
      "do": 8140,
      "dry": 8141,
      "drop": 8142,
      "dmi": 8143,
      "fts": 8144,
      "fting": 8145,
      "fighter": 8146,
      "field": 8147,
      "gant": 8148,
      "gown": 8149,
      "hit": 8150,
      "hoe": 8151,
      "iac": 8152,
      "iates": 8153,
      "ierced": 8154,
      "ihu": 8155,
      "jubes": 8156,
      "ka": 8157,
      "kill": 8158,
      "kates": 8159,
      "kerch": 8160,
      "lers": 8161,
      "lled": 8162,
      "mat": 8163,
      "mart": 8164,
      "mia": 8165,
      "motor": 8166,
      "nite": 8167,
      "niotic": 8168,
      "oala": 8169,
      "phe": 8170,
      "pers": 8171,
      "pick": 8172,
      "powers": 8173,
      "picks": 8174,
      "poof": 8175,
      "papers": 8176,
      "sun": 8177,
      "sure": 8178,
      "screen": 8179,
      "skates": 8180,
      "tage": 8181,
      "trail": 8182,
      "uality": 8183,
      "uette": 8184,
      "wise": 8185,
      "watch": 8186,
      "wls": 8187,
      "xe": 8188,
      "yo": 8189,
      "yond": 8190,
      "yrus": 8191,
      "zil": 8192,
      "ziness": 8193,
      "zards": 8194,
      "Ġ'": 8195,
      "Ġ,": 8196,
      "Ġver": 8197,
      "Ġtro": 8198,
      "Ġtries": 8199,
      "Ġtablo": 8200,
      "Ġtsun": 8201,
      "heeled": 8202,
      "Ġauction": 8203,
      "inch": 8204,
      "inals": 8205,
      "inations": 8206,
      "inety": 8207,
      "Ġsan": 8208,
      "Ġsause": 8209,
      "Ġsort": 8210,
      "Ġsays": 8211,
      "Ġsorrow": 8212,
      "Ġcore": 8213,
      "Ġcate": 8214,
      "Ġcage": 8215,
      "Ġcave": 8216,
      "Ġcord": 8217,
      "Ġcaf": 8218,
      "Ġcycles": 8219,
      "Ġcyl": 8220,
      "anas": 8221,
      "antern": 8222,
      "anitary": 8223,
      "Ġwage": 8224,
      "Ġwires": 8225,
      "Ġwives": 8226,
      "Ġwaved": 8227,
      "Ġwitness": 8228,
      "Ġbent": 8229,
      "Ġbid": 8230,
      "Ġbother": 8231,
      "Ġbakes": 8232,
      "Ġbroom": 8233,
      "Ġbump": 8234,
      "Ġburgers": 8235,
      "isle": 8236,
      "isco": 8237,
      "isbe": 8238,
      "onin": 8239,
      "Ġfant": 8240,
      "Ġfoss": 8241,
      "Ġfoc": 8242,
      "Ġfighters": 8243,
      "Ġpu": 8244,
      "Ġpile": 8245,
      "Ġpity": 8246,
      "Ġpag": 8247,
      "Ġpave": 8248,
      "Ġpaste": 8249,
      "Ġpacket": 8250,
      "Ġpushing": 8251,
      "Ġpierced": 8252,
      "Ġtoll": 8253,
      "Ġtoasters": 8254,
      "lecu": 8255,
      "lemia": 8256,
      "Ġmp": 8257,
      "Ġmal": 8258,
      "Ġmend": 8259,
      "Ġmerc": 8260,
      "Ġmoose": 8261,
      "Ġmaid": 8262,
      "atonin": 8263,
      "Ġhoo": 8264,
      "Ġhay": 8265,
      "Ġhip": 8266,
      "Ġhoe": 8267,
      "Ġhides": 8268,
      "Ġhints": 8269,
      "Ġhdmi": 8270,
      "Ġdil": 8271,
      "Ġdim": 8272,
      "Ġdazz": 8273,
      "Ġdrowned": 8274,
      "inger": 8275,
      "espan": 8276,
      "orough": 8277,
      "Ġinhe": 8278,
      "Ġinher": 8279,
      "Ġinves": 8280,
      "Ġinapp": 8281,
      "Ġinfer": 8282,
      "enary": 8283,
      "engers": 8284,
      "alace": 8285,
      "alade": 8286,
      "allen": 8287,
      "alcul": 8288,
      "altar": 8289,
      "Ġnause": 8290,
      "Ġniss": 8291,
      "Ġnests": 8292,
      "Ġnorthern": 8293,
      "Ġnicotine": 8294,
      "Ġninety": 8295,
      "Ġlye": 8296,
      "Ġoatmeal": 8297,
      "Ġodor": 8298,
      "Ġger": 8299,
      "Ġgren": 8300,
      "Ġgour": 8301,
      "Ġgrain": 8302,
      "Ġgest": 8303,
      "Ġgenes": 8304,
      "Ġginger": 8305,
      "Ġcane": 8306,
      "Ġcanes": 8307,
      "ĠTy": 8308,
      "ĠTar": 8309,
      "ĠTime": 8310,
      "ĠTib": 8311,
      "ĠTadp": 8312,
      "Ġeco": 8313,
      "Ġefficient": 8314,
      "Ġeager": 8315,
      "icing": 8316,
      "icol": 8317,
      "icill": 8318,
      "icuits": 8319,
      "icapped": 8320,
      "illes": 8321,
      "keep": 8322,
      "ĠTheir": 8323,
      "Ġbeats": 8324,
      "Ġbeaches": 8325,
      "Ġbeyond": 8326,
      "opher": 8327,
      "ophy": 8328,
      "irp": 8329,
      "aya": 8330,
      "ayas": 8331,
      "eta": 8332,
      "ether": 8333,
      "etergent": 8334,
      "etrate": 8335,
      "etris": 8336,
      "rost": 8337,
      "roaches": 8338,
      "roads": 8339,
      "lying": 8340,
      "Ġlivers": 8341,
      "Ġlizards": 8342,
      "Ġforced": 8343,
      "acial": 8344,
      "Ġthieves": 8345,
      "Ġthorough": 8346,
      "ĠAch": 8347,
      "ĠAug": 8348,
      "ĠAFTER": 8349,
      "Ġstad": 8350,
      "Ġstup": 8351,
      "Ġstitch": 8352,
      "Ġstethoscope": 8353,
      "ĠScient": 8354,
      "ĠSurger": 8355,
      "ĠSIS": 8356,
      "Ġyol": 8357,
      "Ġyawn": 8358,
      "ĠHun": 8359,
      "ĠHand": 8360,
      "ĠHAN": 8361,
      "ĠHOR": 8362,
      "ĠHimal": 8363,
      "union": 8364,
      "adder": 8365,
      "Ġdoorknobs": 8366,
      "rid": 8367,
      "oli": 8368,
      "Ġhazard": 8369,
      "imch": 8370,
      "iments": 8371,
      "imited": 8372,
      "impan": 8373,
      "elve": 8374,
      "elery": 8375,
      "Ġrearm": 8376,
      "Ġreference": 8377,
      "teroid": 8378,
      "uray": 8379,
      "ĠPR": 8380,
      "ĠPop": 8381,
      "ĠPors": 8382,
      "ĠPub": 8383,
      "ĠPets": 8384,
      "ĠPAL": 8385,
      "ĠPAR": 8386,
      "ĠPuls": 8387,
      "ĠPigeons": 8388,
      "ameth": 8389,
      "Ġplum": 8390,
      "Ġpluck": 8391,
      "oshop": 8392,
      "rafts": 8393,
      "razil": 8394,
      "ĠCor": 8395,
      "ĠCard": 8396,
      "ĠCell": 8397,
      "ĠCock": 8398,
      "ĠCany": 8399,
      "ĠCuc": 8400,
      "ĠCarp": 8401,
      "ĠCream": 8402,
      "ĠCOM": 8403,
      "ĠCPU": 8404,
      "ĠCOOK": 8405,
      "ĠCyrus": 8406,
      "ĠCelery": 8407,
      "ĠCrafts": 8408,
      "anted": 8409,
      "herical": 8410,
      "umina": 8411,
      "ĠMir": 8412,
      "ĠMouse": 8413,
      "ĠMich": 8414,
      "ĠMasks": 8415,
      "ĠMiley": 8416,
      "ĠMORNING": 8417,
      "ĠMICE": 8418,
      "Ġwasn": 8419,
      "Ġnephe": 8420,
      "Ġsober": 8421,
      "andal": 8422,
      "andom": 8423,
      "andise": 8424,
      "abeth": 8425,
      "abased": 8426,
      "abirds": 8427,
      "ĠWill": 8428,
      "ĠWast": 8429,
      "ĠWaste": 8430,
      "ĠWOOD": 8431,
      "ĠWendy": 8432,
      "Ġchains": 8433,
      "Ġchirp": 8434,
      "Ġrout": 8435,
      "Ġrack": 8436,
      "Ġrandom": 8437,
      "thr": 8438,
      "though": 8439,
      "ulum": 8440,
      "aks": 8441,
      "Ġclips": 8442,
      "ĠBE": 8443,
      "ĠBar": 8444,
      "ĠBur": 8445,
      "ĠBall": 8446,
      "ĠBell": 8447,
      "ĠBie": 8448,
      "ĠBilly": 8449,
      "ĠBitter": 8450,
      "ĠBBQ": 8451,
      "ĠBOAT": 8452,
      "ĠBrazil": 8453,
      "Ġfrance": 8454,
      "Ġfrug": 8455,
      "Ġfrustr": 8456,
      "Ġfrisbe": 8457,
      "Ġkills": 8458,
      "Ġkittens": 8459,
      "Ġkimch": 8460,
      "Ġlever": 8461,
      "pper": 8462,
      "igation": 8463,
      "igorous": 8464,
      "ousers": 8465,
      "outhern": 8466,
      "Ġspun": 8467,
      "Ġspong": 8468,
      "Ġspinal": 8469,
      "Ġspherical": 8470,
      "eping": 8471,
      "ained": 8472,
      "Ġteams": 8473,
      "Ġdrought": 8474,
      "apable": 8475,
      "Ġalt": 8476,
      "Ġalley": 8477,
      "Ġalumin": 8478,
      "upils": 8479,
      "ĠYo": 8480,
      "renches": 8481,
      "Ġgoat": 8482,
      "ĠYouTub": 8483,
      "inea": 8484,
      "ineers": 8485,
      "ĠDE": 8486,
      "ĠDid": 8487,
      "ĠDice": 8488,
      "ĠDry": 8489,
      "ĠDise": 8490,
      "ĠDust": 8491,
      "ĠDumb": 8492,
      "ĠDeb": 8493,
      "ĠDIN": 8494,
      "ĠDetergent": 8495,
      "Ġconfl": 8496,
      "Ġwors": 8497,
      "Ġmolecu": 8498,
      "Ġsheet": 8499,
      "inkies": 8500,
      "Ġjug": 8501,
      "quate": 8502,
      "Ġasking": 8503,
      "Ġcolds": 8504,
      "Ġrolled": 8505,
      "Ġensure": 8506,
      "Ġbuds": 8507,
      "Ġsomebody": 8508,
      "ĠFree": 8509,
      "ĠFried": 8510,
      "Ġsmiled": 8511,
      "ĠEast": 8512,
      "ĠExt": 8513,
      "Ġvult": 8514,
      "Ġvibr": 8515,
      "Ġvedio": 8516,
      "Ġvandal": 8517,
      "rower": 8518,
      "Ġtreating": 8519,
      "iea": 8520,
      "ideo": 8521,
      "Ġdrinkable": 8522,
      "Ġunp": 8523,
      "Ġunem": 8524,
      "Ġcattle": 8525,
      "Ġflak": 8526,
      "Ġflute": 8527,
      "Ġupon": 8528,
      "Ġupload": 8529,
      "Ġskirt": 8530,
      "orses": 8531,
      "Ġdrifting": 8532,
      "Ġgrilled": 8533,
      "Ġprolong": 8534,
      "ĠLip": 8535,
      "ĠLiving": 8536,
      "ĠLamps": 8537,
      "ĠLiber": 8538,
      "ĠLicking": 8539,
      "Ġbutts": 8540,
      "Ġsuey": 8541,
      "Ġsuicide": 8542,
      "ĠGate": 8543,
      "ĠGreen": 8544,
      "ĠGlor": 8545,
      "ĠGibr": 8546,
      "ĠGDP": 8547,
      "artments": 8548,
      "Ġdemon": 8549,
      "Ġdeleted": 8550,
      "Ġorch": 8551,
      "ĠJazz": 8552,
      "ĠChair": 8553,
      "ĠChilly": 8554,
      "ĠChimpan": 8555,
      "Ġcomparing": 8556,
      "Ġtram": 8557,
      "Ġtractors": 8558,
      "Ġtrousers": 8559,
      "ĠWeight": 8560,
      "Ġsaving": 8561,
      "Ġsauc": 8562,
      "Ġsailed": 8563,
      "aging": 8564,
      "Ġarsenic": 8565,
      "Ġrival": 8566,
      "Ġknight": 8567,
      "Ġhandkerch": 8568,
      "Ġhandicapped": 8569,
      "Ġloving": 8570,
      "Ġcoaster": 8571,
      "Ġcovers": 8572,
      "Ġcoasters": 8573,
      "Ġcoca": 8574,
      "ĠRes": 8575,
      "ĠRock": 8576,
      "Ġelement": 8577,
      "ĠStores": 8578,
      "ĠStethoscope": 8579,
      "ĠNood": 8580,
      "ĠNaz": 8581,
      "ĠNancy": 8582,
      "ĠNarn": 8583,
      "ĠNether": 8584,
      "ĠOf": 8585,
      "ĠOct": 8586,
      "ĠOper": 8587,
      "ĠOatmeal": 8588,
      "ĠOwls": 8589,
      "Ġclever": 8590,
      "Ġabuse": 8591,
      "Ġhairbrush": 8592,
      "Ġexpanded": 8593,
      "Ġtakeout": 8594,
      "Ġscattered": 8595,
      "Ġscissor": 8596,
      "Ġlighthouse": 8597,
      "armalade": 8598,
      "Ġtheme": 8599,
      "ĠAnime": 8600,
      "onsible": 8601,
      "embers": 8602,
      "Ġfirefighters": 8603,
      "Ġfirefighter": 8604,
      "Ġglove": 8605,
      "Ġhappily": 8606,
      "dequate": 8607,
      "angible": 8608,
      "actured": 8609,
      "izabeth": 8610,
      "Ġquit": 8611,
      "Ġquarter": 8612,
      "ustine": 8613,
      "Ġnightgown": 8614,
      "Ġdism": 8615,
      "Ġdisgr": 8616,
      "Ġdiscon": 8617,
      "Ġrainco": 8618,
      "Ġwindmills": 8619,
      "ccoli": 8620,
      "Ġcontained": 8621,
      "Ġtabletop": 8622,
      "Ġlaund": 8623,
      "Ġlaziness": 8624,
      "Ġpole": 8625,
      "Ġpenkn": 8626,
      "Ġpenicill": 8627,
      "Ġpenetrate": 8628,
      "sex": 8629,
      "Ġbedpan": 8630,
      "Ġprecious": 8631,
      "riculum": 8632,
      "Ġtwins": 8633,
      "Ġtwisted": 8634,
      "Ġtwelve": 8635,
      "Ġsteward": 8636,
      "Ġspecials": 8637,
      "ĠPlane": 8638,
      "Ġballoons": 8639,
      "Ġbookshel": 8640,
      "ptoms": 8641,
      "Ġrefill": 8642,
      "Ġrefueled": 8643,
      "Ġlarva": 8644,
      "Ġovercome": 8645,
      "ĠiP": 8646,
      "Ġbusicuits": 8647,
      "Ġcreative": 8648,
      "ugging": 8649,
      "Ġsaloon": 8650,
      "Ġcommitted": 8651,
      "Ġslip": 8652,
      "Ġcountless": 8653,
      "Ġlandlord": 8654,
      "Ġmustn": 8655,
      "Ġmustache": 8656,
      "ancisco": 8657,
      "Ġbarny": 8658,
      "Ġimportance": 8659,
      "Ġpajamas": 8660,
      "Ġwintertime": 8661,
      "Ġmarina": 8662,
      "Ġcontro": 8663,
      "Ġcontest": 8664,
      "ashman": 8665,
      "ashoots": 8666,
      "Ġpeels": 8667,
      "Ġgrasshop": 8668,
      "ographer": 8669,
      "Ġshopkeep": 8670,
      "Ġgases": 8671,
      "ĠKey": 8672,
      "ĠKTV": 8673,
      "ĠKoala": 8674,
      "Ġprotecting": 8675,
      "Ġprotective": 8676,
      "Ġimproves": 8677,
      "cerned": 8678,
      "Ġagree": 8679,
      "ĠTommy": 8680,
      "Ġembar": 8681,
      "Ġdeserted": 8682,
      "Ġache": 8683,
      "Ġdiaper": 8684,
      "Ġforever": 8685,
      "Ġlistens": 8686,
      "Ġremoving": 8687,
      "Ġcrack": 8688,
      "Ġcrush": 8689,
      "Ġwarming": 8690,
      "Ġwarmly": 8691,
      "Ġfined": 8692,
      "Ġclosets": 8693,
      "working": 8694,
      "lend": 8695,
      "Ġdrying": 8696,
      "ĠCloth": 8697,
      "Ġperming": 8698,
      "Ġpasses": 8699,
      "ipping": 8700,
      "ippers": 8701,
      "Ġfiling": 8702,
      "Ġfilth": 8703,
      "Ġbeloved": 8704,
      "Ġbelfry": 8705,
      "Ġcharity": 8706,
      "Ġbringing": 8707,
      "boards": 8708,
      "Ġcreams": 8709,
      "ĠVio": 8710,
      "ĠVCR": 8711,
      "ĠVideo": 8712,
      "Ġguniea": 8713,
      "letion": 8714,
      "ĠTeal": 8715,
      "ĠTeenagers": 8716,
      "Ġgreatly": 8717,
      "Ġdishcloth": 8718,
      "Ġ25": 8719,
      "Ġ235": 8720,
      "Ġshowing": 8721,
      "hips": 8722,
      "Ġcellphones": 8723,
      "Ġstays": 8724,
      "ĠBee": 8725,
      "ĠBegg": 8726,
      "Ġ15": 8727,
      "Ġbride": 8728,
      "Ġbrief": 8729,
      "ĠEngineers": 8730,
      "ewater": 8731,
      "ewable": 8732,
      "ĠSpace": 8733,
      "floor": 8734,
      "ĠFlower": 8735,
      "ĠFlashman": 8736,
      "Ġharmony": 8737,
      "Ġindian": 8738,
      "Ġstrongbox": 8739,
      "month": 8740,
      "ĠSunscreen": 8741,
      "Ġsprays": 8742,
      "Ġwaff": 8743,
      "Ġwaited": 8744,
      "Ġdistr": 8745,
      "Ġdistinct": 8746,
      "ĠTofu": 8747,
      "Ġbaseballs": 8748,
      "Ġpianist": 8749,
      "Ġkeyhole": 8750,
      "Ġsentence": 8751,
      "ĠMonica": 8752,
      "Ġextract": 8753,
      "Ġenglish": 8754,
      "Ġvoltage": 8755,
      "Ġreprim": 8756,
      "Ġrepairs": 8757,
      "Ġrepaired": 8758,
      "Ġvisual": 8759,
      "zees": 8760,
      "genpoof": 8761,
      "odocus": 8762,
      "ĠBirth": 8763,
      "ĠEarrings": 8764,
      "Ġdeadline": 8765,
      "apple": 8766,
      "Ġtransporting": 8767,
      "Ġcurr": 8768,
      "Ġcurrent": 8769,
      "Ġcurrently": 8770,
      "Ġconsist": 8771,
      "Ġwarn": 8772,
      "Ġwarts": 8773,
      "ĠAlumina": 8774,
      "Ġdraws": 8775,
      "ĠUnder": 8776,
      "Ġobjective": 8777,
      "Ġstarving": 8778,
      "Ġpropuls": 8779,
      "uelis": 8780,
      "Ġcrossroads": 8781,
      "Ġregret": 8782,
      "Ġaddress": 8783,
      "ĠJackson": 8784,
      "Ġstickers": 8785,
      "ĠManaus": 8786,
      "ĠManny": 8787,
      "ĠManagers": 8788,
      "ĠIcecream": 8789,
      "Ġnearly": 8790,
      "Ġkilo": 8791,
      "Ġdirtier": 8792,
      "Ġkillers": 8793,
      "Ġjujubes": 8794,
      "Ġpreparation": 8795,
      "Ġmammoth": 8796,
      "Ġmotorway": 8797,
      "Ġminister": 8798,
      "Ġminerals": 8799,
      "Ġunlimited": 8800,
      "Ġcoward": 8801,
      "Ġrubies": 8802,
      "Ġartists": 8803,
      "ĠFireflies": 8804,
      "Ġsystems": 8805,
      "Ġterrif": 8806,
      "ĠSmart": 8807,
      "Ġdepress": 8808,
      "Ġdepends": 8809,
      "Ġtruckload": 8810,
      "ĠArsenic": 8811,
      "ĠBrother": 8812,
      "ĠLeather": 8813,
      "ĠFruit": 8814,
      "ĠFrancisco": 8815,
      "Ġprints": 8816,
      "Ġcalculus": 8817,
      "Ġcalculation": 8818,
      "Ġcalculating": 8819,
      "Ġcalculations": 8820,
      "ahu": 8821,
      "ahorses": 8822,
      "ĠSeeing": 8823,
      "ĠSeabirds": 8824,
      "ĠSeahorses": 8825,
      "Ġarmor": 8826,
      "Ġcircular": 8827,
      "Ġcords": 8828,
      "Ġmelting": 8829,
      "Ġmelatonin": 8830,
      "Ġfrogs": 8831,
      "Ġfroze": 8832,
      "Ġcelebration": 8833,
      "Ġcelebrity": 8834,
      "Ġcelebrated": 8835,
      "Ġintest": 8836,
      "Ġcabbage": 8837,
      "Ġquicken": 8838,
      "Ġavoided": 8839,
      "nected": 8840,
      "Ġsigns": 8841,
      "Ġdetest": 8842,
      "ĠBody": 8843,
      "Ġsafely": 8844,
      "Ġengineer": 8845,
      "Ġsteaks": 8846,
      "Ġintegr": 8847,
      "Ġsandwiches": 8848,
      "ATI": 8849,
      "Ġincreasing": 8850,
      "Ġabsorbs": 8851,
      "ĠHorse": 8852,
      "Ġruin": 8853,
      "eecaps": 8854,
      "Ġcouches": 8855,
      "Ġcourier": 8856,
      "ugees": 8857,
      "Ġcrowd": 8858,
      "Ġbalm": 8859,
      "Ġaffair": 8860,
      "Ġflights": 8861,
      "ANGE": 8862,
      "Ġferry": 8863,
      "Ġstepfather": 8864,
      "Ġaudio": 8865,
      "Ġviolate": 8866,
      "Ġblowdry": 8867,
      "Ġ400": 8868,
      "Ġuniversal": 8869,
      "Ġcentury": 8870,
      "Ġcenturies": 8871,
      "Ġlifts": 8872,
      "Ġlifespan": 8873,
      "Ġstories": 8874,
      "ological": 8875,
      "ologna": 8876,
      "Ġanswers": 8877,
      "ĠSwallows": 8878,
      "ĠSteamed": 8879,
      "Ġbrake": 8880,
      "Ġattracted": 8881,
      "Ġspaceships": 8882,
      "Ġjudges": 8883,
      "ĠPotter": 8884,
      "ĠPotato": 8885,
      "ĠCooker": 8886,
      "ĠEgypt": 8887,
      "Ġlimitation": 8888,
      "Ġdefrost": 8889,
      "Ġsustain": 8890,
      "Ġrotation": 8891,
      "ĠJeans": 8892,
      "Ġprepares": 8893,
      "Ġmicroscopes": 8894,
      "Ġ6700": 8895,
      "Ġessay": 8896,
      "Ġhonesty": 8897,
      "Ġhurried": 8898,
      "Ġsewer": 8899,
      "Ġdecorated": 8900,
      "Ġracist": 8901,
      "Ġraccoon": 8902,
      "Ġmeaning": 8903,
      "Ġprocessing": 8904,
      "Ġexpressways": 8905,
      "Ġignored": 8906,
      "Ġhippopotamus": 8907,
      "Ġjoin": 8908,
      "Ġdragonflies": 8909,
      "Ġreplace": 8910,
      "ĠGolden": 8911,
      "Ġcupboards": 8912,
      "Ġkisses": 8913,
      "ĠRefugees": 8914,
      "Ġnutritious": 8915,
      "Ġideas": 8916,
      "ĠSky": 8917,
      "ĠPainter": 8918,
      "Ġcompetet": 8919,
      "ĠPolaris": 8920,
      "ĠCaesars": 8921,
      "Ġhideout": 8922,
      "Ġthicker": 8923,
      "ALKS": 8924,
      "ĠMickey": 8925,
      "Ġattacked": 8926,
      "Ġvaccines": 8927,
      "Ġlunche": 8928,
      "Ġsoybe": 8929,
      "Ġperfectly": 8930,
      "Ġsatisfy": 8931,
      "ICKEN": 8932,
      "Ġfollowed": 8933,
      "Ġprimates": 8934,
      "Ġincome": 8935,
      "Ġincapable": 8936,
      "ĠWashington": 8937,
      "ceeded": 8938,
      "Ġflowing": 8939,
      "Ġcrawling": 8940,
      "Ġcrawfish": 8941,
      "Ġhumili": 8942,
      "Ġdealers": 8943,
      "Ġcheerle": 8944,
      "ĠRefrigerator": 8945,
      "Ġbandage": 8946,
      "Ġthirty": 8947,
      "Ġprotectionists": 8948,
      "Ġmulticol": 8949,
      "ĠEyel": 8950,
      "Ġ1234": 8951,
      "Ġtendon": 8952,
      "Ġmoods": 8953,
      "ittys": 8954,
      "Ġnarciss": 8955,
      "ĠSpeaking": 8956,
      "Ġwithdrew": 8957,
      "ĠBuying": 8958,
      "Ġdisposable": 8959,
      "Ġsweeping": 8960,
      "Ġilluminate": 8961,
      "Ġmagnet": 8962,
      "Ġoccupied": 8963,
      "ranny": 8964,
      "Ġsymptoms": 8965,
      "Ġcitizens": 8966,
      "Ġstyle": 8967,
      "ĠSituation": 8968,
      "Ġflavour": 8969,
      "Ġorigin": 8970,
      "Ġrefreshed": 8971,
      "Ġherbivorous": 8972,
      "ĠBaseballs": 8973,
      "namite": 8974,
      "ĠSweaters": 8975,
      "Ġunsafe": 8976,
      "Ġunsanitary": 8977,
      "Ġmummy": 8978,
      "Ġlucent": 8979,
      "Ġghosts": 8980,
      "Ġgallery": 8981,
      "ĠTwinkies": 8982,
      "ĠCHALKS": 8983,
      "ĠCHICKEN": 8984,
      "ĠWindow": 8985,
      "Ġselecting": 8986,
      "ĠDisney": 8987,
      "ĠGunpowder": 8988,
      "Ġopponent": 8989,
      "Ġstripy": 8990,
      "Ġmosquito": 8991,
      "Ġnapkin": 8992,
      "Ġlosses": 8993,
      "ĠBridge": 8994,
      "ĠBridges": 8995,
      "Ġjackh": 8996,
      "Ġbubble": 8997,
      "ĠEdible": 8998,
      "Ġchemical": 8999,
      "Ġreligion": 9000,
      "Ġreligions": 9001,
      "ĠKevin": 9002,
      "Ġdisturbing": 9003,
      "Ġathletes": 9004,
      "liner": 9005,
      "Ġbunnies": 9006,
      "Ġanemones": 9007,
      "Ġheroin": 9008,
      "ĠAutumn": 9009,
      "Ġstatute": 9010,
      "Ġrental": 9011,
      "ĠCru": 9012,
      "ĠCleaning": 9013,
      "Ġspoil": 9014,
      "Ġspoils": 9015,
      "Ġtrustworth": 9016,
      "Ġregardless": 9017,
      "Ġgrandparents": 9018,
      "barrow": 9019,
      "romagn": 9020,
      "Ġaquatic": 9021,
      "Ġminecraft": 9022,
      "Ġeconomic": 9023,
      "Ġshameful": 9024,
      "ĠCOFF": 9025,
      "ĠWithout": 9026,
      "Ġtreadmills": 9027,
      "Ġskateboard": 9028,
      "Ġscientific": 9029,
      "Ġoccasion": 9030,
      "ĠSquirrel": 9031,
      "Ġqualifying": 9032,
      "Ġluxurious": 9033,
      "ĠEVERYDAY": 9034,
      "PUTER": 9035,
      "crast": 9036,
      "crackers": 9037,
      "Ġirrelevant": 9038,
      "ĠHardware": 9039,
      "ĠMammoth": 9040,
      "ĠFROM": 9041,
      "ĠFRIEND": 9042,
      "Ġcompassion": 9043,
      "ĠUranus": 9044,
[...]
